,
.
the
and
in
und
to
die
of
a
that
i
sie
das
der
it
ich
&quot;
you
ist
es
we
is
wir
zu
&apos;s
so
was
this
?
ein
--
von
eine
dass
:
nicht
an
they
den
mit
for
wie
are
on
have
what
auf
but
with
man
sich
can
sind
aber
für
all
haben
wenn
&apos;t
about
there
also
als
er
be
as
at
war
diese
do
um
not
one
&apos;re
im
my
people
if
dem
like
from
he
einen
uns
now
these
können
just
or
hier
oder
our
werden
des
hat
because
when
aus
very
über
out
how
me
by
einer
auch
–
know
kann
up
them
going
einem
dann
sehr
which
here
more
nur
see
wird
think
had
your
who
gibt
really
ihnen
menschen
their
will
get
mich
then
would
were
us
sein
sehen
&apos;ve
world
dieser
etwas
some
&apos;m
time
noch
nach
habe
has
actually
don
into
mir
way
things
where
years
bei
vor
;
mehr
alle
welt
go
am
other
no
-
well
could
want
ihre
make
meine
leben
zum
said
been
machen
weil
new
nun
da
wirklich
wurde
dies
right
something
dieses
she
kind
-@@
first
two
look
durch
those
immer
tun
art
than
his
unsere
little
jetzt
ihr
wissen
thing
got
much
&apos;
back
zeit
hatte
say
life
keine
leute
most
viel
over
problem
viele
only
diesem
work
even
denn
sagte
sagen
un@@
take
eines
du
dinge
diesen
zwei
many
einfach
waren
alles
did
need
her
jahren
good
müssen
bin
why
andere
around
lot
ver@@
wo
&apos;ll
anderen
down
würde
damit
different
bis
let
mein
vielleicht
system
every
zur
through
an@@
selbst
gut
!
geht
come
mal
er@@
ge@@
same
ab@@
use
jahre
doing
being
put
heute
warum
three
day
muss
schon
geschichte
any
einige
called
10
percent
ja
be@@
person
möchte
tatsächlich
made
&apos;d
great
talk
today
able
wieder
macht
s
after
tell
big
gehen
davon
its
end
dort
kinder
denken
ein@@
year
human
ganz
ten
drei
last
another
genau
fact
aus@@
find
hatten
lassen
seine
re@@
darüber
own
land
ihn
paar
change
könnte
ob
idea
before
wollen
didn
jahr
went
should
werde
thought
started
show
in@@
give
kommen
meiner
te
design
story
20
better
never
ihren
wurden
off
course
start
important
auf@@
still
moment
während
again
weg
gab
teil
him
does
beispiel
jeder
next
geben
ago
denke
dazu
ende
gemacht
might
each
part
vom
brain
thank
unserer
technology
neue
denen
wäre
finden
frage
together
ted
en@@
sondern
sogar
...
unser
came
okay
glaube
doch
tag
place
bit
kein
form
computer
long
million
kommt
natürlich
water
ohne
arbeit
ihrer
few
between
used
weiter
zwischen
einmal
zeigen
looking
gerade
weiß
nichts
mean
stellen
würden
too
vor@@
school
information
dafür
s@@
ok
hand
prozent
maybe
love
done
passiert
sort
ging
point
verstehen
found
erste
data
nie
zurück
children
question
unter
doesn
sieht
live
example
über@@
ersten
millionen
vielen
whole
nehmen
konnte
understand
daran
real
30
wanted
four
große
o@@
dollar
k@@
oh
sagt
ed
idee
ganze
bild
may
arbeiten
fragen
letzten
try
etwa
times
bekommen
dabei
women
away
ent@@
50
könnten
everything
trying
working
e@@
call
believe
bringen
kids
internet
fast
sollten
sollte
t@@
ziemlich
de@@
ever
frauen
ing
always
sprechen
less
money
five
wollte
meisten
using
welche
feel
space
fall
power
100
en
geld
kam
country
meinen
a@@
help
meinem
ma@@
food
second
number
d@@
daten
t
wasser
kleinen
thinking
took
seite
weise
wichtig
light
darauf
old
china
create
technologie
sache
video
city
eigentlich
besser
zusammen
future
o
means
getting
energy
weniger
become
quite
making
ins
sense
men
e
enough
probably
vier
small
best
großen
says
without
gesehen
i@@
g@@
building
di@@
ganzen
comes
social
se@@
glauben
li@@
bedeutet
play
ihm
left
dachte
interesting
menge
jemand
lernen
raum
body
kleine
science
brauchen
home
earth
unseren
africa
dollars
ihrem
danke
ter
15
gehirn
zeigt
talking
stuff
happened
gen
coming
versuchen
um@@
half
ask
mann
nein
ro@@
&#91;
&#93;
jedes
p@@
anything
ti@@
jeden
pretty
simple
seit
side
indem
ort
zu@@
room
de
goes
project
planet
ar@@
z@@
ab
ung
lives
zukunft
frau
wer
grund
high
makes
ways
al@@
film
ch@@
york
bad
seen
across
such
living
problems
happen
told
beim
schauen
else
gesagt
job
health
saw
nutzen
m@@
imagine
fünf
eigenen
build
essen
sch@@
seiner
keinen
once
basically
gute
happens
y
countries
global
days
später
yet
schaffen
allen
erde
spielen
picture
sten
hätte
y@@
business
ge
case
b@@
los
team
care
n@@
gegen
hard
jede
book
while
heraus
asked
later
experience
having
wahrscheinlich
move
ungefähr
ra@@
c@@
learn
ideas
u@@
al
probleme
family
pro
bauen
k
dis@@
funktioniert
name
young
age
ts
reason
inside
set
process
konnten
everybody
sicher
st@@
le@@
states
erzählen
arten
per
car
wenig
six
richtig
mutter
open
child
m
both
line
neuen
nothing
billion
em
l@@
history
oft
heißt
single
within
liebe
almost
lange
co@@
helfen
rest
b
g
mind
genug
unter@@
schnell
gt
möglich
stand
looks
40
material
punkt
ri@@
cancer
nächsten
halten
nature
whether
saying
far
top
bring
f@@
schule
cells
ideen
already
music
level
%
körper
bisschen
remember
wrong
true
gruppe
lang
stadt
keep
erst
ated
possible
hope
sah
begann
reden
seinen
guy
unserem
dank
r@@
afrika
überall
beautiful
el@@
planeten
ding
buch
heard
d
looked
often
yes
sure
euch
manchmal
projekt
stehen
ers
darum
research
licht
face
energie
je
community
answer
hin
teilen
matter
st
leuten
anders
bevor
under
piece
united
months
built
group
read
sei
&amp;
am@@
india
amazing
h@@
ungs@@
or@@
entwickelt
god
liegt
taking
hören
eren
milliarden
universe
ische
works
sagten
someone
systems
words
situation
usa
stories
seinem
kennen
instead
ate
education
test
nennen
state
until
places
since
dna
yeah
anderes
liche
gehört
tes
myself
ern
government
isn
ischen
species
order
sometimes
informationen
generation
unternehmen
decided
besonders
weit
control
steht
mädchen
revolution
public
2
language
deshalb
couple
natur
somebody
exactly
kinds
chen
machte
c
middle
house
news
ni@@
turn
stop
le
ungen
verändern
minuten
word
enden
wissenschaft
tat
rather
durch@@
front
/
la@@
oben
bilder
model
namens
everyone
company
n
bereits
heart
though
gar
geschichten
woman
ourselves
con@@
lichen
ation
po@@
head
completely
lo@@
te@@
evolution
red
lebens
itself
erreichen
game
erkennen
minutes
mother
verschiedene
became
share
students
antwort
wasn
führen
lage
familie
es@@
musste
must
animals
25
run
indien
benutzen
sprache
spiel
ert
nach@@
sechs
society
gefühl
darin
wert
happy
experiment
themselves
hätten
turns
america
gerne
innovation
large
—
ating
mit@@
gets
musik
si@@
dich
learned
12
ere
environment
created
möglichkeit
ones
ting
gesellschaft
study
hours
her@@
hear
ie
happening
air
bar
shows
huge
oil
friends
verhalten
klar
sound
guys
braucht
sage
einzige
perhaps
on@@
mo@@
e-@@
stunden
population
th@@
haus
stellt
augen
falls
v@@
disease
ta@@
innerhalb
recht
me@@
treffen
eins
ha@@
along
american
wegen
natural
night
worked
won
third
pro@@
gen@@
couldn
1
ste
jedem
gott
h
gleich
besten
au@@
niemand
se
bewegen
irgendwie
questions
ocean
l
soll
knew
regierung
figure
sachen
lots
machine
gebäude
obwohl
particular
kopf
verschiedenen
early
kindern
vater
vorstellen
stück
center
entwickeln
schreiben
learning
lich
zellen
erhalten
mi@@
area
moving
son
bo@@
others
at@@
menschlichen
national
zusammen@@
past
einigen
mon@@
against
gene
ability
verwenden
gleiche
century
im@@
tiere
finally
gave
king
pa@@
least
takes
u
beiden
z
during
bu@@
wonderful
ger
culture
rate
seven
market
bitte
männer
sa@@
gleichen
60
ändern
ziehen
80
nämlich
media
close
needs
schwer
unglaublich
länder
david
beginnen
patienten
wollten
image
alt
ru@@
mar@@
online
entire
outside
as@@
based
bringt
whatever
p
version
difference
thousands
200
green
kamen
google
dir
cell
taken
lässt
kunst
free
hoch
fand
versucht
du@@
daher
ne@@
chance
parts
überhaupt
lesen
damals
arm
isch
per@@
patient
gern
software
changed
so@@
universum
he@@
view
hin@@
kultur
aller
wohl
hiv
auto
3
beginning
yourself
hilfe
möglichkeiten
ten@@
powerful
herum
nächste
führt
tut
turned
5
tage
hause
audience
cool
given
fähigkeit
groß
bi@@
eltern
ken
seeing
sinn
interested
baby
wirtschaft
getan
certain
ch
black
terms
angst
staaten
allem
nachdem
size
leave
zwar
ei@@
verändert
ans
pe@@
menschliche
fühlen
entwicklung
zurück@@
full
glück
grow
street
ko@@
cannot
eyes
dessen
bewegung
ous
eight
plan
walk
economic
to@@
ger@@
difficult
kurz
junge
sen
region
easy
labor
letzte
behind
began
spend
stelle
web
hand@@
wort
buy
ds
ho@@
zahlen
value
vision
unten
ly
inter@@
death
dingen
worden
led
lösung
force
setzen
common
man@@
eher
amount
fish
j@@
s-@@
lösen
ter@@
gone
deren
weitere
den@@
self-@@
paper
normal
hoch@@
ze
meines
week
fahren
local
teile
hands
erfahrung
scale
field
cost
lehrer
deal
humans
blue
ck@@
needed
kosten
nimmt
jedoch
south
simply
sh@@
kraft
cities
vi@@
car@@
neu
welches
longer
unterschied
muster
step
father
born
mu@@
r
betrachten
anfang
tried
18
stage
fa@@
prozess
parents
eigene
roboter
modell
position
ausge@@
erte
wind
500
solche
sp@@
erten
jungen
either
feet
schön
virus
lose
realized
growth
is@@
interessant
complex
erinnern
direkt
code
x
surface
publikum
beste
wasser@@
minute
ses
lost
ziel
krebs
autos
mussten
spent
books
falsch
incredible
tragen
schließlich
genauso
u.s.
wissenschaftler
personal
white
fi@@
d-@@
sitting
watch
quickly
ac@@
companies
fragte
grunde
mag
fliegen
bleiben
zer@@
box
thema
behavior
su@@
structure
verbindung
ur@@
w@@
gi@@
maschine
known
namen
jobs
laufen
nahm
kaufen
wahr
sieben
act
gedanken
2@@
woche
do@@
ground
ton
girl
john
na@@
zweite
felt
sex
vortrag
reality
stellte
sterben
freunde
eat
boden
sollen
wären
wouldn
growing
bar@@
university
fly
for@@
pay
meter
ks
met
danach
monate
bereich
op@@
brought
friend
formen
neues
opportunity
technologies
t-@@
hast
wi@@
licher
animal
guten
sea
super@@
wa@@
economy
alter
developed
zahl
90
miles
ates
fun
weeks
feeling
plötzlich
besteht
4
aren
da@@
changes
richtung
zuvor
11
gu@@
erschaffen
political
ens
hey
struktur
suchen
wusste
anderer
hinter
lt
größte
technologien
potential
reise
poor
sk@@
zi@@
platz
ster
ar
genommen
tra@@
lebens@@
positive
ka@@
ad@@
theory
lab
write
ihres
west
wrote
starting
anyone
wall
alen
nice
short
völlig
forschung
religion
bildung
college
ale
areas
tools
sun
technik
fe@@
ben
morning
wochen
climate
draußen
tages
zehn
ange@@
images
scientists
general
museum
luft
patients
par@@
designer
ber@@
program
ste@@
gebaut
manche
map
18@@
forward
attention
giving
reihe
zuerst
modern
funktionieren
average
links
gives
gefunden
deep
discovered
markt
gemeinschaft
knowledge
gewesen
geworden
ländern
möchten
scheint
ded
aussehen
ine
ice
movement
ex@@
fest
digital
anzahl
it@@
16
unseres
cars
pi@@
cut
speak
studenten
schul@@
erklären
sehe
understanding
ke
krieg
en-@@
ms
playing
student
north
gelernt
alten
literally
over@@
beginnt
acht
challenge
phone
schritt
bereit
firma
numbers
brachte
bottom
mache
mars
shape
daraus
pre@@
ons
dr.
moral
materials
ischer
seems
access
anstatt
key
y-@@
mis@@
größe
aufgabe
beide
schwierig
physical
computers
passieren
jahrhundert
tatsache
creating
miteinander
ä@@
running
erzählt
ck
individual
anfangen
pu@@
morgen
hal@@
english
wachsen
ent
glücklich
300
absolutely
bau@@
findet
sen@@
tieren
genannt
designed
gruppen
nachdenken
chris
bist
table
mensch
late
hold
realize
result
jemals
law
recently
medical
chinese
kleines
gas
bekommt
compassion
fanden
wahrheit
relationship
gingen
solution
millions
mor@@
ges
focus
größten
nobody
3@@
developing
bewusst
ak@@
hi@@
6
sts
krankheit
verwendet
amerika
soziale
telling
product
changing
niemals
wei@@
alone
girls
hundreds
incredibly
save
umgebung
gesundheit
egal
haven
listen
seem
knows
ant
afghanistan
ben@@
development
f
gra@@
vorstellung
industry
dark
politik
der@@
benutzt
stimme
gezeigt
gerät
el
ings
gebiet
ser@@
blood
ja@@
anybody
anzu@@
no@@
ps
kid
tu@@
mer@@
oberfläche
available
showed
london
bücher
liches
issue
especially
allein
obviously
w
gegeben
schulen
died
go@@
entfernt
verbunden
rolle
schrieb
richtige
bekannt
straße
kleiner
karte
hour
clear
welt@@
hälfte
ot@@
bank
grund@@
bio@@
solve
major
talked
hu@@
bedeutung
jemanden
geschrieben
war@@
schlecht
ca@@
perfect
com@@
finger
we@@
games
foto
ba@@
sub@@
kontrolle
beyond
meinung
security
support
sicherheit
lived
spricht
allow
bigger
fl@@
tiny
type
network
mittel
systeme
theorie
produce
einfache
action
beziehung
please
present
na
leicht
städte
drive
office
gegenüber
70
qu@@
park
veränderung
east
becomes
x@@
har@@
heraus@@
impact
che
begin
geboren
writing
fähigkeiten
richard
erreicht
nacht
stark
mitte
tri@@
ve
scientific
color
kan@@
happiness
kon@@
reasons
guess
explain
mission
interessiert
auszu@@
pictures
preis
hoffe
resources
teach
effect
special
international
dead
8
groups
europe
ic
schools
freund
br@@
einzelne
under@@
basis
device
mögen
bill
out@@
fehler
gebracht
folgen
nation
verloren
us@@
14
low
worth
fallen
regeln
pflanzen
zen
sc@@
sta@@
ker
os
isches
versuche
mine
voice
absolut
rules
legen
stimmt
robot
soon
training
gesicht
send
voll
meet
erfolg
asking
aids
similar
sonne
bewegt
putting
involved
uses
activity
men@@
basic
offensichtlich
teachers
boy
bekam
website
towards
sonst
dachten
voller
kt
projects
komplett
arbeitet
ansehen
heutzutage
zeige
tisch
vereinigten
finde
quality
issues
taten
selbst@@
dar@@
seiten
sofort
truth
a-@@
liegen
nennt
ku@@
risk
herausforderung
einge@@
tells
suddenly
village
mass
herauszufinden
several
ähnlich
mitgefühl
solar
gekommen
studie
eye
ches
bald
blick
lei@@
fear
japan
board
normalerweise
sorgen
certainly
machten
smart
sounds
nine
page
ig@@
tier
class
particularly
total
entscheidungen
non-@@
month
geschieht
gesamte
möglichen
ne
ständig
hundred
statt
all@@
wann
indeed
trotzdem
wichtige
ergebnis
everywhere
evidence
24
lieben
haupt@@
object
einander
pen@@
hei@@
wants
bei@@
tod
ir@@
tion
walking
bed
em@@
starts
hit
europa
bilden
künstler
wish
choice
examples
bevölkerung
gesch@@
ber
mal@@
größer
notice
gewinnen
hoffnung
tagen
linie
hospital
anyway
om@@
$
weg@@
message
bare
skin
wieder@@
ner
schen
orte
pattern
hält
neu@@
land@@
showing
sicht
ready
ah
aufmerksamkeit
reach
carbon
nuclear
service
wait
begannen
professor
monaten
sobald
länger
moved
programm
zeit@@
gemeinsam
totally
stay
erung
medicine
kannst
gearbeitet
exciting
democracy
further
ma
journey
san
grenzen
anschauen
wesen
th
biggest
sitzen
sozialen
connected
vergessen
source
square
onto
period
creative
weltweit
forms
grew
sit
measure
denkt
punkte
zelle
rede
ol@@
realität
ler
überleben
add
400
bewusstsein
einzelnen
passierte
speed
großer
et@@
il@@
videos
follow
schneller
tet
verlieren
nachrichten
pick
ended
talks
gleichzeitig
produkt
bleibt
bessere
ci@@
fire
richtigen
gesprochen
re
firmen
ty
langsam
beobachten
aufzu@@
medien
übrigens
gel@@
öl
largest
road
sand
9
fu@@
babies
ft
screen
abzu@@
beispiele
rei@@
sahen
teacher
ke@@
demokratie
13
develop
iran
bestimmten
vorher
stars
wichtiger
extraordinary
deine
gl@@
gang
versuchte
ged
poverty
peace
interessante
tions
named
success
est
strong
amerikanischen
mental
likely
lead
wer@@
list
wahl
klein
serious
spaß
song
krankheiten
buildings
washington
bestimmt
fangen
ga@@
rich
ebene
hab
führte
watching
gutes
visual
einfluss
end@@
bri@@
among
industrie
break
tausende
orten
großes
continue
tier@@
trees
tan@@
medizin
approach
außer
partner
sprachen
strom
zentrum
ling
tend
cht
aufge@@
zumindest
points
plants
zeiten
wussten
island
zero
products
bal@@
elle
co2
dadurch
sti@@
cu@@
spiele
results
star
arbeitete
organization
4@@
african
brains
ally
17
impossible
eln
v
safe
umwelt
door
objects
electricity
laden
7
verlassen
standing
essentially
series
definition
sent
meaning
geschehen
wow
ö@@
usually
cause
eventually
computer@@
spezies
ing@@
paul
ce
messen
nachzudenken
biology
spiel@@
zweiten
verbessern
cks
gte
somewhere
grad
entdecken
except
movie
alte
elt
ki@@
sprach
tischen
fer@@
methode
doctor
mom
zustand
star@@
extremely
ordnung
tische
mathematik
bühne
tr@@
spread
wand
toll
außerdem
wieso
ff@@
fen
menschheit
facebook
farbe
sky
gestellt
traditional
allowed
upon
camera
expect
erzeugen
studies
architecture
aussieht
crisis
geist
higher
erlaubt
lines
tic
site
dad
warten
fing
sowohl
reading
private
tree
models
thousand
kar@@
somehow
studien
ball
larger
nachricht
individuals
the@@
tool
frei@@
taught
sekunden
papier
foot
truly
fundamental
por@@
materialien
beauty
tung
ment
written
tive
finding
sorts
vergangenheit
conditions
verständnis
herstellen
les
cor@@
lu@@
prinzip
older
ters
cher
mer
fällt
nen
band
sammeln
killed
gründe
tv
nenne
baren
bacteria
shown
shot
zugang
handelt
crazy
bs
früher
fotos
himself
fine
fantastic
zeug
dr@@
ene
drug
wife
leaders
interest
ell
produzieren
above
text
großartige
schüler
35
einzu@@
party
läuft
diejenigen
trust
nahmen
kom@@
bra@@
gewalt
auto@@
therefore
treten
testen
schaut
dorf
communities
frei
ou@@
goal
je@@
ges@@
rein@@
suche
blind
konzept
charles
seconds
worse
befinden
treatment
complicated
neben
zwei@@
artikel
monat
dream
wirklichkeit
perspective
lebt
versuch
.@@
spielt
sal@@
universität
aufgrund
fort@@
stri@@
famous
werte
organisation
verstanden
england
western
flow
genes
tiert
drugs
massive
produkte
hinaus
nummer
content
19@@
lichkeit
physics
excited
bur@@
des@@
amerikaner
favorite
supposed
details
personen
ator
berg
freiheit
successful
irgendwo
ozean
israel
san@@
hole
behandlung
role
entweder
ran
ph@@
town
expensive
ag@@
haut
stunde
interesse
innen
welcher
sell
bl@@
armut
wachstum
zed
feld
hot
rise
globalen
engineering
worte
central
humanity
entdeckt
military
unmöglich
familien
theater
typ
2000
klasse
neurons
leisten
betrachtet
weiter@@
cases
»
response
fest@@
plant
faster
sohn
kept
ung@@
meant
ster@@
main
throughout
tigen
freedom
pain
radio
sinne
original
kill
including
ders
gs
gegangen
alive
150
hilft
geschäft
arzt
smaller
gründen
dra@@
riesige
families
aid
pri@@
price
math
tre@@
fight
schicken
extra
verbinden
«
genome
entschieden
ergebnisse
pieces
bunch
pal@@
ties
che@@
patterns
dasselbe
slow
antworten
projekte
selben
dritte
vertrauen
high-@@
fully
arbeits@@
pan@@
öl@@
wo@@
ley
meeting
touch
argument
rechts
bestimmte
netz
maschinen
einstein
george
context
teaching
himmel
ul@@
dog
herum@@
bel@@
liste
male
objekt
actual
chten
gefragt
beginn
recognize
rück@@
tumor
etc
james
architektur
violence
although
policy
stimmen
dance
stellten
lösungen
us-@@
arbeite
skills
earlier
handeln
signal
holen
fällen
ermöglicht
clearly
eis
kollegen
neun
listening
biologie
bakterien
tz@@
store
waiting
concept
progress
choose
eben
voll@@
dan
active
ebenso
connect
nahrung
greater
thanks
stre@@
medi@@
fin@@
costs
ity
solchen
näher
zing
glass
gten
michael
and@@
president
magic
tor@@
tur@@
ju@@
invented
strange
remarkable
erklärt
zunächst
connection
beings
satz
healthy
wonder
ban@@
naja
untersuchen
familiar
cken
machines
traf
sing
dung
fertig
werfen
income
rights
chte
record
operation
setzt
americans
september
gung
balance
entscheiden
solutions
umwelt@@
raus
production
anywhere
performance
tige
ness
zeigte
heit
schönheit
increase
ums
kaum
geschwindigkeit
hört
gesetz
however
driving
provide
re-@@
waste
surgery
leider
press
lie@@
artist
hände
decisions
neuro@@
tt@@
hörte
schlechte
exist
ressourcen
km
direction
freude
1@@
gesamten
befindet
2008
legs
bodies
spitze
draw
hundert
bezug
lan@@
malaria
consider
travel
ce@@
politics
protect
außerhalb
600
retten
meer
flu@@
allows
lower
seines
beziehungen
plastic
services
geb@@
rund
kl@@
kampf
auswirkungen
komme
hen
mobile
mikro@@
straßen
sin@@
robots
99
herz
verkaufen
geschaffen
les@@
bus
foundation
letztes
dein
none
lag
bedingungen
werkzeuge
dangerous
clean
landes
ehrlich
ction
feed
iert
tests
fische
ts@@
anymore
conference
unglaubliche
current
one-@@
worten
rule
forces
auge
values
abge@@
conversation
erfahren
flying
win
ca.
deswegen
ves
floor
bisher
pass
traum
hielt
specific
erstens
effective
critical
herausfinden
ellen
sorry
thomas
ants
erfolgreich
sche
gleich@@
leidenschaft
self
block
intelligence
lin@@
ship
station
gel
mark
erzählte
ach@@
getroffen
gar@@
function
motor
geräte
verstand
keiner
pat@@
studio
slide
trade
nu@@
wege
practice
cra@@
environmental
train
standard
minds
min@@
greatest
gehirns
regierungen
nigeria
lernte
är@@
bor@@
abend
emotional
enen
rock
jo@@
depression
großartig
druck
armen
understood
wichtigste
subject
far@@
rechte
cultural
uhr
protein
win@@
kilometer
z.b.
rechten
becoming
trans@@
er-@@
verrückt
doctors
erwarten
genetic
speaking
raise
cold
hunderte
held
masse
erinnere
schließen
immediately
don@@
treat
einfachen
strukturen
experiments
decade
fuel
eller
einzigen
unterschiedliche
mr.
lights
kinder@@
useful
ebenfalls
reaktion
can@@
k-@@
dern
6@@
ian
langen
ring
ver
chemical
typen
konferenz
restaurant
range
produced
net
ors
evolved
wikipedia
directly
extrem
weren
whose
creativity
bäume
stein
nasa
passion
krankenhaus
enormous
walked
nahe
final
eigenschaften
ell@@
9@@
45
cover
drehen
energie@@
pull
angefangen
zeitpunkt
forth
bt
forget
ob@@
res@@
unfortunately
flugzeug
institutions
kor@@
financial
ahnung
kamera
ations
micro@@
loved
gehe
my@@
endlich
twitter
kli@@
consciousness
darwin
survive
near
mehrere
fit
il
heutigen
photograph
tern
schlagen
trifft
networks
schützen
cker
westen
tiger
status
police
ism
els
levels
groß@@
negative
weisen
nehme
tradition
following
unterschiede
daten@@
stick
kal@@
netzwerk
gesellschaften
ve@@
jemandem
wichtigsten
boys
types
behandeln
öffentlichen
stattdessen
o-@@
tem
tionen
veränderungen
ließ
focused
dro@@
element
ken@@
aware
gesundheits@@
wal@@
kern
bin@@
detail
various
reichen
sha@@
shared
ess
governments
hängt
globale
fisch
str@@
75
phase
sat
birds
kunst@@
büro
television
besch@@
jene
ärzte
medikamente
herz@@
ted-@@
herzen
societies
gr@@
et
sustainable
000
fahr@@
temperature
5@@
teams
wohin
ars
verantwortung
organisationen
mostly
stra@@
career
california
al-@@
search
dri@@
ton@@
pl@@
drei@@
indian
verbindungen
obvious
gedacht
zweitens
tion@@
sharing
inspired
apple
geschafft
ganzes
laptop
son@@
gaben
ard
konzentrieren
dy
sleep
guter
erfunden
extreme
englisch
wor@@
alternative
hinein
jahrhunderts
helped
mc@@
regel
ancient
markets
possibly
instrument
hinter@@
anti-@@
summer
instance
sodass
event
2007
eating
designers
wider@@
wenige
weiss
karten
recent
tete
lief
path
körper@@
natur@@
moon
ha
brot
tür
anti@@
7@@
ces
lasst
öffnen
bits
genden
below
harvard
unique
character
fälle
farben
capital
verbringen
herzustellen
push
ing-@@
heat
produktion
brauchte
wunsch
erfahrungen
ys
explore
secret
institute
stecken
daughter
größere
werk
diseases
größeren
funny
erzeugt
paid
geführt
wild
winter
gehirn@@
ality
related
tolle
gebe
urban
ther@@
race
spending
erleben
ahead
budget
francisco
hy@@
trick
1,@@
versch@@
zeichen
medium
nar@@
waffen
mil@@
entschied
echte
pp@@
sicherlich
complete
intelligent
luft@@
scientist
biological
physik
weight
challenges
up@@
inspiration
gefühle
ernst
sor@@
artists
bought
entscheidung
ked
existiert
ators
cur@@
islam
erstaunlich
unterstützen
steve
discover
bringing
halte
capacity
industrial
birth
echt
bitten
ü@@
effects
bre@@
decision
robert
bat@@
terrible
complexity
fühlte
schöne
ß@@
kte
gold
loch
sekunde
ct
workers
erstes
modernen
fähig
slightly
popular
note
fra@@
laws
leistung
gri@@
tens
carry
eu@@
vorbei
straight
schluss
genutzt
ess@@
quick
youtube
valley
twice
communication
ance
track
neuronen
dying
wählen
reich
geschah
kreativität
desto
ka
produziert
wagen
devices
steckt
frühen
mel@@
steigen
dreht
mond
komplexität
vier@@
stern
charge
han@@
tief
eigenes
wörter
amerikanische
nächstes
gend
degrees
link
drop
folgendes
fuß
fe
quote
10,000
zes
pla@@
fair
bildern
beeinflusst
worry
broken
molecules
decide
conflict
stem
task
freunden
runter
not@@
fragt
weiterhin
gro@@
atmosphere
seien
osten
dig
endes
amp
begonnen
bro@@
spieler
sto@@
ss
fühlt
zog
hart
gegen@@
graph
check
significant
mountain
ze@@
spreche
höhe
purpose
mt
ca
1,000
published
zusammenhang
forest
ieren
qualität
willing
cher@@
infrastructure
fenster
electric
spe@@
coffee
surprising
tochter
ansatz
played
causes
closer
memory
marketing
nähe
erlauben
address
farm
ff
ven@@
citizens
dorthin
ausdruck
stone
trial
fluss
leads
lat@@
verfügung
offen
ful
noticed
gende
ments
nicht-@@
feedback
asia
investieren
hearing
daß
minister
magazine
zieht
supply
in-@@
universums
allerdings
kostet
ford
ani@@
zimmer
ausbildung
somit
kriegen
grade
wirst
ren@@
oxygen
differences
nor@@
pressure
multi@@
stücke
fühle
sting
materie
gelegenheit
funktion
reisen
bestehen
decades
del@@
aktivität
verursacht
habt
wissenschaftliche
politischen
20@@
designs
bat
hotel
gewebe
2010
dan@@
riesigen
co
fernsehen
verfolgen
pr@@
benötigt
erforschen
sign
british
structures
corner
mittel@@
sucht
stolz
natürliche
communicate
infrastruktur
flight
indi@@
sur@@
fli@@
fort
schutz
fo@@
ta
bau
trouble
giant
plus
frieden
ern@@
begriff
trotz
nations
pakistan
irgendwann
feuer
apart
kämpfen
botschaft
cent
tro@@
gh@@
calls
bird
effekt
boston
answers
tig
highly
einkommen
sterne
tief@@
farmers
term
prize
river
brown
haufen
risiko
kontrollieren
erinnert
töten
len@@
discovery
passed
werkzeug
ermöglichen
laut
tru@@
kern@@
vielfalt
einfacher
filme
worst
planets
programs
enter
yellow
haus@@
zieren
brilliant
choices
politische
fix
chs
colleagues
entstehen
männern
8@@
aufgenommen
klingt
gestalten
bridge
efficient
seemed
lehr@@
gener@@
entwickelten
gotten
großbritannien
ige
kin@@
davor
improve
5,000
vergleich
verdienen
krise
kommunikation
ad
possibility
condition
2005
creates
tremendous
kräfte
roten
wiederum
beine
gesetze
bas@@
lich@@
zei@@
moments
prison
schaft
unbe@@
era
organisms
report
phenomenon
eigen@@
tional
kenne
organizations
benötigen
sand@@
onen
ran@@
quelle
grenze
easily
dennoch
ages
feels
blu@@
zeichnen
einsatz
arme
sozusagen
bone
chicago
tissue
selber
ecke
haiti
scher
schafft
wächst
städten
hoffentlich
ary
ll@@
responsibility
verkauft
objekte
letztendlich
golf
gemeinde
imagination
aufgaben
ker@@
fied
return
ute
helping
gest@@
cal@@
va@@
folge
landscape
reduce
respect
stoff
ach
iraq
-year-old
soldaten
studying
union
leiden
notion
jährige
brand
problemen
flo@@
diversity
lautet
gebiete
card
sun@@
boat
gewonnen
ckt
ously
reagieren
legal
stische
flug@@
noise
lebte
nearly
painting
gelangen
bürger
knowing
gilt
kur@@
modelle
än@@
kr@@
fellow
fer
schätzen
entlang
agree
sam@@
window
cal
differently
obama
ry
leid
leading
stu@@
vollkommen
lung
saß
teilt
pollen
engage
herausgefunden
particles
gewicht
ide@@
mp@@
civil
core
wide
hr@@
achieve
fil@@
scheinen
influence
wood
dor@@
elles
möglicherweise
linken
necessarily
religious
ant@@
lebten
fy
fortschritt
relationships
wing
sonnen@@
2009
karriere
zug
hunger
weiteren
hair
figured
engine
genen
management
beeinflussen
cs
ändert
beschäftigt
g-@@
turning
forever
ap@@
ender
mouse
alität
methoden
weiteres
kurzem
gan@@
throw
bread
pen
polio
missing
setzte
senden
sch
hall
moleküle
sitzt
sion
behandelt
gers
opportunities
lucky
kommunizieren
bewegungen
dagegen
atmosphäre
wohn@@
darf
aging
ology
staat
paris
besitzen
perspektive
lesson
21
steuern
faces
dieselbe
ismus
effort
meilen
ultimately
fields
aler
despite
jungs
welchen
zone
len
shift
blog
kraft@@
interact
wandel
wirtschafts@@
hell
wahrscheinlichkeit
jahres
umgehen
stopped
versus
buchstäblich
base
bezahlen
forscher
det
entwerfen
themen
lied
klimawandel
foreign
on-@@
dh
fairly
id
elements
arms
besseren
trained
gre@@
20.
schwarze
kontakt
bush
ner@@
titel
uganda
interface
chaos
nochmal
kunden
zuhause
1.@@
ns
teten
photo
fleisch
fehl@@
fragten
sommer
brings
members
engineers
durchgeführt
eis@@
vollständig
fuhr
form@@
erstellen
typical
ien
meistens
transformation
perfekt
19
arbeiter
temperatur
mexico
tausend
zell@@
hi
phänomen
worüber
cre@@
col@@
visit
streets
organic
shares
vers
unbedingt
gras
cy@@
intelligenz
wesentlichen
year-old
sir
absolute
gestern
plan@@
wirkung
join
boot
kten
baum
ic@@
unterstützung
peter
events
hinein@@
10@@
raum@@
colors
benefit
ents
gedanke
radi@@
dar
norden
post
.com
zusammenarbeit
attack
slowly
sozial@@
competition
gefängnis
brief
unterschiedlichen
afraid
apply
j
wunderbare
fashion
mathematics
hervor@@
schwester
distance
french
lauf
entsteht
mögliche
traffic
vermutlich
beschreiben
benefits
female
tom
ft@@
edge
entwickelte
experten
circle
hohen
licht@@
afford
ying
lies
digen
suffering
veröffentlicht
dritten
kennt
matters
ment@@
virtual
hauptsächlich
ends
creatures
ia
hergestellt
stufe
wind@@
laufe
gehalten
lation
degree
zufällig
profound
lö@@
stischen
aktiv
row
milliarde
cloud
rat
sau@@
easier
falsche
justice
names
mitten
lernt
bett
gender
begins
van
fre@@
deutlich
factory
weder
campaign
responsible
hohe
meters
din@@
emotions
wohl@@
invest
igen
adults
präsident
überzeugt
pres@@
flu
experimente
viren
identity
sol@@
schlag
symbol
überzeugen
ziert
date
gelesen
investment
organ
brachten
cheap
fighting
cts
behalten
coast
engineer
brother
wisdom
neuer
breast
tions@@
reicht
irgendetwas
holding
berei@@
entirely
ziele
führung
heads
hel@@
hopefully
familien@@
necessary
tue
finished
hund
gefahr
sold
schutz@@
starb
gift
catch
creation
losen
describe
stress
los@@
massen@@
moves
interessieren
spo@@
crime
handel
fascinating
jährigen
begeistert
seriously
rein
häuser
opposite
buch@@
legt
bildschirm
22
äu@@
helps
otherwise
mütter
consumption
ali@@
stock
shouldn
chen@@
capable
wh@@
las
vergleichen
trend
prote@@
gewissen
texas
hü@@
billions
raised
adam
tons
ließen
motivation
camp
arbeiteten
wissenschaftlichen
leben@@
basiert
räume
insekten
sick
kümmern
loss
walls
tten
verbracht
meat
universal
volle
woher
erster
emotion
master
fell
stell@@
verbreitet
predict
rahmen
hirn@@
tiefe
uner@@
arts
passt
kurze
offer
tin
sister
ved
lets
insects
speech
statistics
ak
option
bemerkt
gesetzt
phones
count
betrifft
haft
ctions
print
rot
übertragen
experiences
glaubt
lack
diabetes
chip
operating
sive
relevant
caught
spirit
bil@@
babys
zeitalter
echten
pf@@
erzähle
spot
sparen
klein@@
verlangen
chi@@
verhindern
bf
ris@@
95
languages
lieber
lachen
morgens
institution
sei@@
sport
spar@@
aten
aufnahmen
deeply
versuchten
photos
alleine
klang
fläche
derek
enjoy
importantly
tricks
fach@@
sequence
humor
elemente
economics
leaving
principles
beach
aufnahme
eli@@
tt
drittel
sowie
hinweg
separate
affen
geburt
zählen
schönen
sam
steigt
saving
invisible
lau@@
cting
civilization
wunderbar
la
führten
wil@@
ise
einsetzen
ktion
erstaunliche
anderem
lern@@
sudden
barkeit
airplane
angeles
independent
church
desire
starke
perfectly
email
opened
article
großteil
vast
steps
schla@@
fall@@
bauern
app@@
dauert
lady
oceans
pping
spaces
damage
cr@@
uni@@
ober@@
bild@@
netzwerke
ed@@
cycle
finanz@@
meeres@@
iphone
könnt
kalifornien
ari@@
teil@@
schi@@
mur@@
23
val@@
frank
chair
bieten
3d
ähnliche
organismen
korea
wahrnehmung
erkannte
fund
institutionen
ren
bees
bereiche
kü@@
film@@
normally
background
warming
schwimmen
hor@@
kürzlich
ies
vo@@
tomorrow
ang@@
blut
everyday
2,000
hintergrund
beat
desert
sters
mouth
galaxy
knochen
bis@@
passen
ori@@
survival
stisch
patent
erwartet
gehabt
mach@@
handy
argue
eingesetzt
stellung
bekamen
landschaft
fri@@
atom@@
miss
augen@@
wuchs
majority
stuck
normale
praktisch
nannte
herr
according
rural
studied
organized
due
cat@@
keeping
sli@@
sector
fourth
viruses
dreams
nieder@@
2004
10.000
jump
wisst
mas@@
deliver
wür@@
agriculture
älter
brauchten
believed
bildungs@@
motion
trägt
tischer
fold
landwirtschaft
herausforderungen
analysis
2003
bloß
concerned
geschickt
drin
rücken
driven
aufhören
verwandeln
electrical
sä@@
län@@
ny
ec@@
wahre
wald
cally
nutzt
bestimmen
0@@
zo@@
poly@@
gehirne
harder
gegenteil
le-@@
bedeuten
failed
hoffen
hate
existieren
surprise
st-@@
verbreiten
weißen
puts
leiten
dahin
ese
ser
insel
joy
kenya
opfer
verantwortlich
unternehmer
childhood
irak
metaphor
thinks
normalen
toward
galaxies
journalist
ären
kurzen
17@@
abhängig
molecule
bienen
person@@
zen@@
invited
ameisen
schmerz
moderne
trip
mindestens
27
sphere
linien
sted
commercial
sel@@
2001
hyper@@
inneren
gewisse
erkenntnis
vögel
hidden
paint
ced
chan@@
fiel
grand
profit
managed
filled
compared
gay
designing
principle
husband
gehören
halt
tter
hang
soil
schaute
fal@@
yesterday
whenever
opening
wealth
cul@@
constantly
wahl@@
bauten
getötet
tives
player
lebewesen
überrascht
häufig
dürfen
werbung
zogen
oni@@
shapes
individuen
bezahlt
öffentliche
oxford
to-@@
generationen
elten
two-@@
poster
gezogen
dimensions
sten@@
letter
zation
sauerstoff
bares
interagieren
ßen
ordinary
shoes
kontext
lam@@
ving
händen
mothers
transition
zt
debate
microsoft
eindruck
brauche
plane
rid
täglich
fern@@
failure
advantage
pun@@
direct
kat@@
random
standards
genauer
european
steel
multiple
transform
muscle
mach
followed
ash@@
identität
leg
brothers
voices
menschen@@
n-@@
drawing
weile
covered
tough
gas@@
fisch@@
wearing
unless
eure
dinner
see@@
erscheinen
losing
körpers
stands
corruption
rief
polizei
weißt
army
tom@@
yo@@
whom
treated
bürger@@
lie
musst
ning
ence
annehmen
kurs
26
gestorben
stanford
blo@@
entdeckung
pages
increasingly
affect
2006
wan@@
grün
artificial
ansicht
erklärung
drüben
om
öffentlichkeit
richten
cy
lehren
unterscheiden
signals
tal@@
compare
warm
elektro@@
nah
illusion
generations
16@@
tel@@
prevent
cht@@
char@@
solch
va
martin
represent
persönliche
vorteil
leadership
leaves
cap@@
expression
schau@@
fahrer
professional
fla@@
gespräch
eri@@
sicherheits@@
clip
nationen
cli@@
lin
continent
wel@@
mittleren
versorgung
wunder
post@@
hum@@
belief
schlechten
65
distribution
ats
wired
garten
emotionen
paying
bot@@
ei
aufbauen
tzen
seat
britain
dly
weird
producing
stein@@
ingly
krank
sed
bli@@
soviel
collective
match
trends
pounds
lieblings@@
rätsel
scht
angenommen
kreis
currently
anwenden
meiste
lager
wars
sho@@
exists
regionen
früh
blin@@
bietet
vehicle
cortex
lä@@
super
double
holes
verschwinden
equivalent
hä@@
schlüssel
schlimmer
stammt
gol@@
märkte
verbindet
relativ
af@@
signale
ra
stream
van@@
interview
definieren
well-@@
ie@@
ernährung
250
planning
fol@@
ghana
probe
denk@@
fängt
einheit
tour
mengen
gates
schicht
ably
galaxien
hasn
library
garden
jack
lass
bright
abschluss
eric
enten
wichtigen
tar@@
kb
erhält
tierte
sieren
fü@@
classroom
fis@@
bell
inspiriert
mü@@
markt@@
rau@@
launched
stan@@
businesses
vorfahren
fr@@
honest
mortality
notwendig
gkeit
dinosaurs
evil
japanese
highest
standen
verhältnis
mile
dry
mentioned
copy
collect
starten
weapons
experts
worried
bear
associated
pleasure
disaster
proud
&apos;@@
described
20th
leader
gam@@
neighborhood
roll
smell
worldwide
houses
ase
mus@@
respond
gsten
heben
erfinden
regen@@
chemicals
äre
holz
flies
drink
fat
caused
lunch
feelings
gegensatz
wobei
ray
appear
ften
kn@@
strategie
suppose
arbeit@@
gefahren
quellen
strategy
strei@@
grandmother
traditionellen
limited
glas@@
organs
digitalen
berührt
killing
forced
grown
und@@
baut
programme
einiger
dach
seitdem
malen
blocks
canada
halbe
bereichen
mountains
faktor
deinen
pole
blau
spring
erungen
consequences
layer
gens
threat
surprised
schuhe
gefährlich
komplexe
nest
küste
bruder
daily
kulturen
sm@@
essential
dinosaurier
aller@@
unge@@
besondere
korruption
conscious
ales
gelöst
streben
einzel@@
kindheit
heisst
spielte
mess@@
wir@@
x-@@
ure
importance
letters
wirtschaftlichen
wert@@
thoughts
roughly
ned
scan
chemistry
cognitive
bing
maus
fle@@
hn@@
lauf@@
department
elte
rates
pin@@
hen@@
sad
lessons
verfügbar
fill
schnitt
teilchen
schaden
beschlossen
homes
interaction
grundsätzlich
fantastisch
teeth
bru@@
comp@@
pe
hil@@
manhattan
emerging
stuhl
fire@@
afrikanischen
coral
grundlegende
sexual
back@@
trag@@
ras@@
bes@@
ls
mexiko
ii
forschungs@@
chicken
charakter
aspekt
tä@@
früh@@
unterricht
nervous
awful
medizinische
blatt
flü@@
reduzieren
equal
gäbe
tausenden
treiben
tsch@@
democratic
zeitung
wear
studieren
clo@@
müsste
ted@@
fernseh@@
springen
construction
wenigen
affected
präsentation
schw@@
strom@@
shop
höher
molecular
heavy
eng@@
hängen
schien
100,000
bang
inner
waves
augenblick
dran
natürlichen
pre-@@
tor
erd@@
ß
tab@@
drücken
null
gespielt
spoke
cke
baute
vermitteln
howard
fördern
club
cro@@
soldiers
ative
wave
cla@@
persönlich
clinical
trials
schei@@
bestand
nachbarn
cambridge
innovative
sel
nt
tony
taste
resource
entspricht
spr@@
westlichen
prime
relative
three-@@
contact
einrichtungen
mehr@@
zerstören
700
dots
erter
solar@@
kit@@
gew@@
tail
5.000
closed
fication
entstanden
practical
sites
angesehen
wire
ersetzen
married
down@@
verbrachte
kam@@
hom@@
gefallen
rain
empty
ven
persönlichen
dogs
ast
raus@@
beantworten
fabrik
cri@@
erscheint
werten
pil@@
cted
remote
asien
tedx@@
bon@@
rufen
gravity
stärke
wand@@
prove
genom
teuer
herunter@@
beweisen
folgende
mag@@
dynamic
tungen
windows
za@@
mes
800
rio
ol
motor@@
lagen
chtet
wunder@@
rand
northern
politiker
fossil
australia
effectively
kerl
gei@@
konflikt
accident
shi@@
origami
zweck
alzheimer
users
hinsicht
entworfen
ssen
momente
jedenfalls
vis@@
avoid
lichsten
lektion
aufzubauen
junger
weather
wechseln
helden
sprach@@
quasi
technical
mm@@
viertel
erkennt
silicon
fan@@
untersucht
newspaper
haltung
bein
träume
ish
gemeinden
erlebt
fährt
verteilt
liked
alize
unterrichten
beinahe
architekten
addition
müll
graduate
schwer@@
equipment
löcher
ping
sinn@@
kaffee
unabhängig
galaxie
facing
gap
dealing
horse
specifically
adult
freien
finish
display
feststellen
mathematical
saturn
14@@
gelassen
curious
sharks
berichten
restaurants
kilometers
kreieren
spectrum
pac@@
gesundheitswesen
researchers
movies
schwierigkeiten
zerstört
intellectual
anhand
stärker
account
hl@@
beweise
possibilities
talent
schwarzen
bekannten
underneath
elektrizität
user
aufgebaut
druck@@
120
whereas
simulation
offen@@
intuition
protection
initiative
setting
richtungen
rote
fresh
ically
photographs
verfahren
round
cultures
wen
ky
dat@@
fuß@@
alized
florida
selten
höre
ev@@
existence
statistiken
maps
raten
sources
bit@@
fro@@
geändert
considered
post-@@
3,000
wirk@@
brechen
klima@@
situationen
solved
atmen
rechts@@
pacific
techniques
sees
langer
hau@@
cross
orbit
scene
hör@@
deten
notes
medikament
gem
gps
hadn
advanced
spiegel
falten
welchem
kra@@
sugar
battery
fern
führer
demand
gebeten
tele@@
nord@@
zivilisation
rational
long-term
wirkliche
ologie
pur@@
players
sil@@
gegend
comfortable
ble
schlafen
erin
komplex
nis@@
glas
suggest
barer
folie
radical
vorstellungen
sides
vote
pul@@
gelegt
1960
zauber@@
plat@@
selling
liquid
experienced
lichem
perception
hydro@@
fun@@
chain
peak
deeper
filter
seh@@
bedürfnisse
homo
gain
brian
kers
ologen
kochen
regular
picked
sum@@
ble@@
beobachtet
dunkle
telefon
testing
durchschnittliche
inhalt
typically
mul@@
besuchen
breath
controlled
nötig
sätze
proteins
reaction
saal
nutzung
agenda
weiße
zugänglich
ines
generate
define
kampagne
chemikalien
ehe@@
hinten
s.
credit
p-@@
marine
tors
mund
human@@
cam@@
heißen
geld@@
introduced
wesentlich
stood
kitchen
nützlich
großmutter
method
definitely
blieb
calling
willst
express
entdeckte
plans
dimension
silk
ils
diagramm
hol@@
sets
explosion
hallo
target
erfindung
crash
teenager
blauen
evolutionary
architect
lustig
identify
erstellt
grüne
pause
internationalen
grosse
diet
kopf@@
folks
exchange
gegenwart
vorne
safety
therapy
schalten
ched
ierte
kompliziert
wen@@
vollen
pos@@
characters
mitglieder
leistungs@@
wirken
engagement
goals
cents
centers
explains
folgt
geographic
flat
effektiv
online-@@
platform
tation
convince
gore
sowas
connections
gelebt
valuable
autor
ht
writer
arrived
verbessert
lifetime
gs@@
metal
med
erwähnt
ep@@
naturally
stupid
anteil
verlust
former
pop
siert
efficiency
ham@@
geheimnis
load
variety
solange
property
personally
lediglich
smith
menschlicher
brücke
tel
lli@@
mini@@
digitale
ina
soci@@
übrig
viel@@
click
gefällt
diskussion
radiation
cl@@
insbesondere
kes
represents
stoßen
gesund
vorhanden
entwicklungs@@
generally
dienst
video@@
southern
ecosystem
prinzipien
herren
theme
queen
seltsam
singen
non@@
op
las@@
heim@@
tin@@
erwachsene
epidemic
acts
zitat
transport
lokalen
schimpansen
herr@@
pool
entwicklungsländern
zz@@
bedarf
derzeit
grünen
toten
wieviel
q@@
ward
büchern
illegal
kriegs@@
expected
geschäfts@@
85
straßen@@
webseite
moralische
roll@@
computing
faith
vorhersagen
mama
burn
aufregend
joe
primary
achten
regen
sentence
psycho@@
saved
beschäftigen
stoffe
ladies
unterstützt
innere
freundin
tot
schmerzen
afrikas
metapher
carrying
achse
hierher
maßstab
regierungs@@
air@@
versteht
außen
fac@@
ertes
capture
flug
buying
atoms
bay
el-@@
suggests
ig
factor
zuhören
replace
pilot
mention
physiker
struggle
driver
co-@@
behaviors
volk
formed
sy@@
wenden
wettbewerb
müssten
prä@@
alism
goods
wüste
squ@@
tz
molekül
dy@@
gemeinschaften
blogs
fte
pra@@
liefern
beschloss
vulnerable
serie
exercise
carefully
cas@@
illness
einiges
films
beinhaltet
äußerst
systemen
defined
hinzu@@
appropriate
ur
applied
clever
honor
steven
ank@@
eg@@
kapital
jim
brach
mes@@
analyse
kombination
swim
unglaublichen
gli@@
untersuchung
reward
orange
risks
enorme
grundlage
increasing
erwachsenen
krebs@@
politicians
sum
tiges
previous
roof
ical
glo@@
string
nden
verbreitung
cking
roots
roads
geräusche
fischen
laboratory
anstelle
ba
depends
environments
trillion
hat@@
cooking
serve
rennen
axis
großartigen
milk
hnen
voraus
hab@@
stammzellen
nä@@
henry
hielten
chemie
awareness
fusion
rare
cked
piano
require
kurve
relatively
situations
stro@@
pack
glamour
leb@@
australien
ffen
bank@@
slo@@
ths
cutting
senses
ching
speziellen
vagina
seht
broke
entstand
marriage
rb
beispielsweise
strength
proben
destruction
director
züge
gulf
risiken
ear@@
felder
u.k.
unterschiedlich
mut
gesichter
ausstellung
sektor
accept
comfort
crowd
entfernen
sending
hurt
pped
wondering
ppe
wirtschaftliche
ausmaß
diert
received
gebieten
12@@
log@@
zer
mode
bedenken
introduce
lay
ente
recorded
wed
invention
arm@@
miss@@
mix
pollution
sophisticated
infected
ple@@
manage
allgemeinen
nachts
selbstverständlich
visible
schrift
telefon@@
21.
confidence
convinced
veränderte
uns@@
mistake
location
enti@@
ride
gegründet
lincoln
stic
ws
teste
pas@@
schlechter
vertraut
setzten
taliban
requires
gegenseitig
discussion
anwendung
mitarbeiter
sms
schrecklich
spezi@@
menschliches
kul@@
ancestors
verteilung
passionate
innen@@
kanada
leiter
laptops
novel
mirror
channel
u.n.
fail
fel@@
eastern
tiven
survey
promise
stes
section
heran@@
beweis
überraschend
grab
que
neuron
solcher
cing
runs
mistakes
prepared
unit
sa
voraus@@
medizinischen
kirche
encourage
properties
ausgeben
ours
industri@@
vaccine
versagen
therapie
schlägt
nahrungs@@
dur@@
kannte
grid
überlegen
switch
sse
hits
comics
irgendjemand
ely
psychology
emissions
vorzustellen
worauf
alist
unlike
bezüglich
processes
lächeln
west@@
tracking
1.000
bac@@
five-@@
damen
beschreibt
extra@@
consumer
thin
ana
cop@@
gekauft
internationale
error
gebraucht
style
fen@@
ozeane
füllen
healthcare
germany
may@@
wovon
katastrophe
ppen
tze
trinken
verwandelt
vorbei@@
strand
battle
sw
acting
entrepreneurs
schlüssel@@
brazil
ah@@
tim
explanation
weiterer
neighbors
gemeinsame
meetings
sal
werke
manufacturing
clay
kapitel
fying
poetry
kenia
tac@@
übernehmen
dauerte
pm
bob
di
top@@
input
überwinden
aufs
ko
darunter
fan
witz
sticks
ville
schritte
unusual
ohren
grafik
protected
watched
quantum
ory
instruments
wofür
tö@@
anfing
hans
cure
est@@
movements
rollen
bemerken
presentation
wine
vermeiden
resultat
ought
opinion
solving
ss@@
shall
exploration
member
obje@@
nde
2011
28
stin
32
lake
reached
arab
tics
rechnen
20-@@
collaboration
smile
amy
empathy
holz@@
jesus
added
continued
tanz
zeigten
willen
interpretation
ph
burning
enz
existing
presence
grossen
aussage
technological
hollywood
employees
zähne
lang@@
meist
seid
curve
bronx
linked
ished
cin@@
gefähr@@
percentage
facts
birthday
ideal
oren
components
bomb
betrieben
penguins
koran
durchschnitt
erende
musical
wechsel@@
ore
hoping
lar@@
berg@@
stand@@
arti@@
transparent
golden
fingen
hill
hö@@
farmer
freie
nicht@@
organe
telescope
interests
pol@@
mat@@
wahrnehmen
logic
combination
sensitive
2002
mittels
hrt
sample
ße
gal@@
bike
darstellen
court
fewer
bling
schwieriger
besseres
electronic
jung
schreibt
recht@@
chinesische
geln
manager
physi@@
quiet
kleidung
teilweise
15@@
coal
existenz
besessen
konzentriert
ler@@
sher@@
nase
hing
hospitals
akzeptieren
closely
rec@@
dimensionen
productive
literatur
süden
schauten
educational
gemälde
congress
ruf
kle@@
mitteln
ey
dre@@
zierte
falling
deutschland
südafrika
bo
kriege
momentan
parallel
süd@@
garage
cards
armee
occurred
accurate
haften
hörten
religionen
schuld
bubble
erkrankungen
kontinent
absicht
wat@@
kevin
skill
asks
einfaches
annahme
wein@@
mau@@
dichte
lying
flowers
jan@@
sport@@
ears
bag
st.
0-@@
traveling
gemeinsamen
materi@@
cat
unver@@
wake
musik@@
emp@@
stehe
worum
ash
stronger
interessantes
gerechtigkeit
gdp
besitzt
tsunami
three-dimensional
partners
realen
shake
hero
dramatic
wünschte
fakten
un
debatte
gebäuden
violent
verbrechen
ics
dge
grün@@
gold@@
plastik
tritt
erweitern
perfekte
lebenden
pfund
theit
genetische
mark@@
spro@@
dischen
wellen
literature
shark
glaubte
hydrogen
zurückzu@@
tam@@
gebrochen
hardware
heroes
einstellung
automatisch
schiff
schneiden
bottle
umfeld
lehre
framework
benjamin
shoot
ast@@
ultimate
spüren
konsequenzen
zy@@
economists
zier@@
nat@@
organisieren
shanghai
amounts
derer
islands
tiv
mechanical
rapidly
enthalten
funktionen
cru@@
sitz
büro@@
aufnehmen
fed
zucker
xi@@
larry
c.
unterhaltung
funding
fishing
pulled
ergibt
sar@@
tasche
weltweiten
jahrzehnt
all-@@
tonnen
joke
verstehe
lebe
songs
score
farb@@
enorm
lifestyle
rü@@
flächen
enthält
hot@@
author
sight
blaue
chef
kabel
brust
todes@@
geholfen
stoff@@
woran
meinte
hän@@
presse
eggs
ologist
inen
aktivitäten
sl@@
include
technique
reputation
de-@@
geräusch
regions
besagt
erkannt
dropped
tte
19.
grain
11.
ähnlichen
gun
head@@
collapse
lea@@
mutter@@
wirkt
explo@@
kontrolliert
rooms
faktoren
tot@@
magie
dieselben
psychologie
tube
stat@@
psych@@
correct
bla@@
fehlt
mitglied
wohlstand
irgendeine
haup@@
behavioral
innovationen
pt
ture
glücklicher
initi@@
heim
treating
soft
samen
soweit
low-@@
chancen
rie@@
insight
weshalb
performing
zerstörung
actions
nen@@
respekt
ya
sustainability
decline
subjects
mangel
schatten
quar@@
clouds
new@@
daniel
geschenk
cameras
erforscht
iger
erhöhen
singing
schlug
tape
sunlight
jeff
bericht
conventional
outcome
tanzen
ll
tzt
böse
froh
änderungen
tonight
fake
ansieht
schl@@
bildet
macht@@
flasche
elektrische
niveau
verlauf
kameras
milli@@
dame
epidemie
rocket
ausgaben
microbes
lügen
erlebnis
jahr@@
factors
april
aufgeregt
bekomme
satellite
ites
auseinander
explained
creature
schü@@
relate
shaped
statement
smo@@
lebensmittel
ingenieure
nose
amazon
ursprünglich
darstellung
transportation
button
offenen
dam@@
fortschritte
conservation
sie@@
ty@@
nis
programmieren
religions
demonstration
edi@@
aspect
folgenden
county
bert
parks
via
tank
topic
vari@@
tü@@
mehrheit
beibringen
100.000
nachzu@@
wissenschaften
collection
ernsthaft
increased
reverse
gottes
0,@@
keeps
measured
fasziniert
brand@@
bio-@@
welten
aspekte
afternoon
vieles
hinzu
inzwischen
shame
bones
trat
ized
test@@
spät
schu@@
tat@@
b.
monkeys
remain
andrew
shor@@
anschaut
val
architects
combine
walks
generated
vierte
algorithms
verglichen
wä@@
split
features
cou@@
feeding
release
length
magne@@
1990
nebenbei
figures
raw
womit
activities
sicht@@
sper@@
sty
drives
meaningful
puzzle
proteine
genügend
55
komm
entfernung
10-@@
records
matrix
komplexen
fundamentally
musiker
mike
batterie
gentlemen
nor
ited
chips
feynman
nelson
super-@@
oxytocin
wenigstens
wolken
ereignis
oc@@
behaupten
gewinn
fokus
dargestellt
detect
ero@@
lokale
é@@
kaufte
poli@@
verkehr
gat@@
attempt
vielmehr
younger
effizienz
swimming
gab@@
gericht
options
regime
mikroben
exact
pure
au
mol@@
vol@@
ischem
retro@@
tea
blase
dün@@
election
surgeon
doubt
remains
finance
hut
trafen
fantastische
nachgedacht
narrative
tested
kop@@
nie@@
starben
defense
stil
alisiert
globe
liefer@@
challenging
deli@@
phrase
tic@@
engaged
beschrieben
scheinbar
spektrum
unfall
expand
upper
reference
fach
schen@@
johnson
german
zte
gesammelt
dige
ära
optimi@@
hunde
durchführen
stieg
lichkeiten
eingeführt
medizin@@
analy@@
graben
lee
determine
gue
pizza
climb
noten
eingeladen
erinnerung
ge-@@
krieges
schau
ctive
dick
beenden
lebende
gewählt
paradigm
preise
conclusion
feuer@@
launch
stor@@
interaktion
gespräche
dose
horrible
ologe
stephen
vorher@@
linear
dest
gedicht
tale
bus@@
ron
prices
w-@@
waffe
hung
touched
combined
manchen
nan@@
expedition
informations@@
jones
basierend
verursachen
verfolgt
dilemma
ams
strahlung
wireless
trau@@
betreiben
physically
philosophy
angeht
13@@
vehicles
33
sorge
2,@@
wherever
she@@
sauce
mittlerweile
starken
interviews
vogel
vorteile
merken
worlds
bibliothek
unteren
marke
hervor
eindeutig
48
tan
tiefen
kno@@
hong
zusätzlich
lichste
evening
definiert
mall
hof
route
spa@@
pinguine
speziell
wunderbaren
lebenserwartung
boring
ernähren
frankly
authority
instrumente
perform
potenzial
indischen
langsamer
dense
billionen
titan
besorgt
pair
dd@@
title
ooh
del
wurzeln
0.@@
breaking
ini@@
processing
küche
ki
neither
twi@@
sweet
villages
poem
rad
clinic
ball@@
lands
suit
obsessed
blumen
schild
sicher@@
kümmert
kti@@
techniken
umzugehen
weisheit
expert
signs
heiten
sichtbar
mitnehmen
surely
schließt
m-@@
brasilien
zusammenarbeiten
fein@@
shut
tiefer
tran@@
laser
zweimal
such@@
sky@@
frame
clothes
enable
grundlegenden
underwater
bein@@
desk
tauchen
beteiligt
wände
by@@
functions
ausgesetzt
baseball
dete
operate
ye@@
nett
recording
printing
biologische
operationen
bung
verwendung
decken
36
eier
messages
stiftung
lg
glücklicherweise
inseln
danger
somewhat
halb@@
wright
sons
solid
gran@@
kulturelle
50,000
stadt@@
verschwunden
ehe
grand@@
interactive
älteren
circumstances
staff
brust@@
bogen
neben@@
binden
einst
überraschung
copyright
maßnahmen
stet
algorithmen
well-being
flügel
bemerkte
selection
dozen
gefangen
sis
bahn
dirty
connecting
ältere
liebte
national@@
netz@@
privat@@
stable
schwarz
sü@@
aufgewachsen
mate
applications
divided
embrace
schönes
maß@@
session
remind
plastik@@
mystery
gewisser
muslim
jane
derselben
killer
newton
träumen
kostenlos
concrete
monitor
sex@@
bü@@
sozi@@
wem
artigen
haie
branche
sions
für@@
sle@@
erer
feature
wechsel
volume
virginia
2050
buchstaben
geschlagen
geschäfte
räumen
spider
ill@@
fs
bee
unexpected
außen@@
bet
stift
blut@@
seele
i-@@
halb
ambi@@
largely
dliche
leg@@
wise
gabe
zierten
tex@@
entertainment
required
tiver
gesamt@@
handle
mischen
fingers
makers
transformed
paintings
isi@@
faszinierend
boom
root
functional
implications
dert
kurz@@
quarter
reform
auff@@
mandela
william
wn
wondered
minus
schn@@
seltsame
herstellung
yer
21st
abstract
tlich
vorstellungskraft
alismus
diagnose
collected
decke
variation
niemanden
atten@@
fliegt
funk@@
hieß
darstellt
watt
clinton
courage
chinesen
lasse
grass
ländlichen
drogen
könig
lighting
abraham
spi@@
agency
kreativen
visuelle
chter
zus@@
palm
tungs@@
greenhouse
höhere
acht@@
cm
cook
verliert
ming
kei@@
ität
auen
anischen
kohle
sy
soli@@
interessanter
joshua
ähnliches
jener
reg@@
dna-@@
stoffen
alien
advice
ppt
distributed
internet@@
boxes
yed
30-@@
ruhe
resistance
simplicity
nationale
water@@
infinite
wär@@
ir
cow
alter@@
bezeichnet
projekten
wahlen
flugzeuge
metern
iges
ägypten
egypt
afrikaner
vorbereitet
scott
geteilt
suchte
maß
schä@@
ologists
bedeutete
hr
weite
flew
pie@@
zufrieden
berge
latest
jähriger
schwierige
green@@
1000
participate
nutz@@
component
deaths
ander@@
resultate
mid-@@
fürs
ink
internal
genetischen
dot
lieren
released
liber@@
ökosystem
investitionen
grenz@@
africans
geleitet
umge@@
fahrzeuge
nahen
dahinter
equation
ungsk@@
heu@@
pel
ziel@@
bezeichnen
ai
schießen
classic
ass
exploring
dancing
ckte
genius
chapter
ski
sonnenlicht
odd
ek@@
bedrohung
benden
beachten
fore@@
maker
islam@@
housing
ads
journal
anlagen
alex
fortune
charlie
gate
carolina
schäd@@
tee
dlich
19th
plate
admit
slums
physicist
symmetry
moore
mad
computern
tau@@
economist
unknown
pon@@
jahrzehnten
zentren
yorker
sw@@
kingdom
regi@@
cup
mechanism
inspiring
charity
individu@@
concepts
60s
empfin@@
schlussendlich
reduziert
schaue
anscheinend
delhi
jazz
fliege
trage
bars
potentially
consumers
has@@
busy
är
plattform
anten
kla@@
hafte
mächtig
staat@@
militär@@
hinzufügen
loop
hne
angel@@
entdeckungen
wa
rat@@
meme
tate
umgeben
störungen
studium
identical
männchen
glichen
voneinander
moral@@
geistes@@
versteckt
thin@@
unclear
dauern
gray
welle
te-@@
incentives
mo
anzusehen
öffnet
spuren
cho@@
arabischen
victims
präsidenten
kre@@
dolphins
seti
four-@@
falschen
passing
kreative
tisches
bles
circuit
angle
militär
severe
pflanze
joined
parking
begegnen
wunderschöne
gewe@@
measuring
wheel
computer-@@
para@@
isieren
aktion
design-@@
zuschauer
milch
tag@@
lebendig
greifen
obesity
späten
stayed
müll@@
domin@@
technischen
bricht
trug
phot@@
leichter
proof
marks
landen
inspirieren
joseph
apo@@
deiner
gras@@
packen
29
oran@@
scared
t.
aufbau
atlantic
feiern
anderson
bias
flower
lift
hren
sculpture
20,000
tech
rose
bibel
zü@@
struck
gegenden
ökonomen
ped
klassenzimmer
dunkel
depend
vorzu@@
dean
cies
christ@@
blicken
planen
lon@@
erhielt
causing
steine
celebrate
mm
fehlen
snow
antwortete
nas@@
actor
klinik
shar@@
beruf
chern
riesen@@
pocket
geburtstag
hier@@
unterwegs
zahn@@
pferd
schrieben
organism
placed
ots
nachbarschaft
samkeit
tigung
hinterlassen
trennen
gram
romantic
wu@@
dient
iled
ai@@
mä@@
grows
shell
dische
design@@
schicksal
jahrzehnte
installation
breathe
invent
wissenschaftlern
cyber@@
gru@@
fei@@
tall
rock@@
mathematiker
ly@@
perfe@@
pile
machst
arguments
tie
verdient
1-@@
sches
pläne
bel
vorgang
work@@
neuigkeiten
tierten
existed
powers
chose
automatically
kong
stei@@
careful
ine@@
bekämpfen
anische
pregnant
golf@@
loses
ships
wünsche
sche@@
asteroid
usw
everest
divide
photo@@
arbei@@
powered
ann
doppelt
flexible
lovely
hon@@
schwarz@@
france
habitat
70s
magnetic
whales
tzte
tasks
forsch@@
nowhere
getrennt
chinesischen
relation
zahl@@
chemische
ereignisse
neten
cken@@
gleichung
liefert
geruch
dinger
stru@@
elektrischen
ech@@
ently
stoppen
dent
spezielle
bende
terror
tower
sprung
schichten
ade
schweden
letzter
anstieg
kugel
anlage
jay
entscheidend
density
versorgen
griff
blätter
ware
arthur
slides
monkey
klima
zin@@
moralischen
auswahl
verb@@
kun@@
autism
russia
ham
bemerkenswert
roman
sahara
vermögen
ration
awesome
ter-@@
carried
directions
false
lenken
web@@
meer@@
ize
wichtiges
blei@@
funktionierte
christmas
digt
november
portrait
hip
usual
gramm
dig@@
gor@@
pir@@
interestingly
epidemi@@
schwere
synthetic
um-@@
tter@@
oma
script
electro@@
recovery
capit@@
claim
ffs
funktion@@
ets
virtually
multi-@@
heiß
genießen
letztlich
rever@@
occur
alisierung
positiv
intense
üb@@
vorge@@
insgesamt
schte
islamic
soul
schreib@@
e-mail
aside
estimate
appreciate
bers
kö@@
erhöht
üben
ear
optimistic
zä@@
irgendeinem
abgesehen
zeich@@
komponenten
cry
particle
bewohner
vorschlag
drehte
offene
werbe@@
angriff
constant
welcome
tere
wirft
gefüllt
highway
72
pink
weltraum
th-@@
toxic
march
vorhin
extinct
hs
ium
nation@@
zeitraum
publi@@
biologischen
inner@@
ursprung
translate
lige
hello
stock@@
higgs
drogen@@
productivity
papers
mei@@
allo@@
an-@@
weak
shoulder
mö@@
u.s
remove
facial
opposed
centuries
berechnen
drittens
gesundheit@@
tja
gemein@@
legacy
meister
congo
equally
output
august
open-source
weltkrieg
sweden
betroffen
quest
drauf
populations
fau@@
truck
erwärmung
neigen
winzig
distant
kä@@
sender
übersetzen
dungen
happier
erenden
half-@@
fifth
teufel
mess
var@@
fahrzeug
mainly
erneut
treibt
tal
ering
fressen
bizarre
origin@@
geworfen
dazwischen
ür@@
eigenschaft
presented
net@@
border
stations
vergnügen
legte
philosophie
ngos
conver@@
anger
dunkelheit
sech@@
spiegel@@
beigebracht
ette
jun@@
economies
gründete
schlu@@
ending
pfer@@
comedy
vir@@
scanner
symptoms
agreed
dynamics
höchsten
matic
bible
begreifen
nannten
kohlenstoff
energi@@
stadium
inten@@
3.@@
selbe
ausmachen
mensch@@
photography
übung
organize
furniture
beides
identi@@
judge
alpha
permanent
zufall
din
knee
mus
mumbai
gesunde
leonardo
2.@@
elephant
änderung
yu@@
spiritual
hai@@
einfachheit
till
funded
bene
echtzeit
rwanda
surrounded
teure
knapp
strategien
akt
erinnerungen
anwendungen
savings
dienen
nets
pc
pfen
vessels
viol@@
berühren
haare
demo@@
mot@@
interessanten
faced
balloon
painful
dynamik
dramatically
forming
depending
studiert
hnt
zunehmend
abed
sogenannte
eres
herunter
represented
identifizieren
secure
pflege
educated
ef@@
latin
wundervolle
silence
verein@@
disorders
classes
fett
wander@@
zoom
infiziert
jenseits
whale
organisiert
cast
filmen
diger
biologen
scratch
bun@@
year-olds
wolke
verschiedener
dunklen
hide
resi@@
syn@@
bility
app
posi@@
drucken
liest
hassen
tenden
dish
erklärte
atory
szene
long-@@
.org
kalt
gendes
kontroll@@
ausrüstung
wozu
zentrale
vergangenen
konfrontiert
streiten
hiv-@@
b-@@
astro@@
cartoon
stam@@
ered
allowing
drinking
stille
ater
positiven
disappeared
dutzend
0
teilung
scary
brü@@
spoken
kamer@@
wanting
stamm
zeichnungen
laugh
architekt
relations
mehreren
sonder@@
präsentiert
veröffentlichen
audi@@
spreading
herself
sichtweise
immune
parent
blasen
wälder
zugeben
risiko@@
drawn
conversations
konflikte
z.
tively
handys
besucht
iron
schlechtes
dun@@
shock
stärken
investiert
gross
außergewöhnlich
cell@@
besonderen
figur
mic
muslims
granted
samples
disorder
köpfe
boards
hinblick
zwischen@@
bie@@
gebrauch
37
offered
institut
bab@@
kosten@@
se-@@
bewahren
federal
aktuelle
vietnam
ain
psychological
ick
astonishing
könne
mutation
schlag@@
tile
ay
colle@@
digung
besuchte
bekannte
fas@@
wü@@
sexy
disappear
winkel
dependent
ele@@
scho@@
repair
umständen
anz
ans@@
outcomes
pig
tly
providing
limb
sylvia
teren
sla@@
floating
headed
advertising
berichtet
hur@@
fremden
spots
attacks
foie
fran@@
rush
behave
traurig
circa
accessible
friendly
cha@@
verkehrs@@
appears
proje@@
chart
länge
kreb@@
stan
beitragen
appeared
fahrt
uten
campus
kultur@@
flüssigkeit
belohnung
apparently
anpassen
ther
gemüse
3-@@
entered
leuchten
seed
muskeln
limits
abo@@
é
altern
ehre
nervös
sende
maße
provo@@
reaching
sports
tax
liver
suffer
visuellen
gleichgewicht
plätze
abhängigkeit
vely
ßt
sandwich
wartet
reaktionen
wetter
dating
lewis
eigentliche
glück@@
moder@@
embedded
kasten
heaven
empfinden
helium
emergency
height
ot
wider
umso
atoren
rech@@
dem@@
beitrag
ierten
britischen
zukünftigen
hardly
assume
inspire
tied
alisieren
kni@@
chocolate
interessen
punkten
defini@@
reiche
rising
dignity
chemi@@
ame
vertrau@@
ridiculous
tunnel
corporate
tende
fiber
schli@@
speakers
x-ray
eit
tragedy
tedtalk
emotionale
angry
schickte
ik
dene
winzigen
trucks
verbrauch
eth@@
by-@@
motors
krei@@
zeichnete
kongo
symptome
russland
ener
1999
ethical
gross@@
destroyed
commitment
den-@@
erdbeben
locked
gandhi
gerettet
fordern
overall
tered
berechnungen
tically
poorest
riesiges
regel@@
afrikanische
-like
ures
og@@
mung
overcome
scans
tumors
bot
ergeben
subje@@
98
muscles
bul@@
lig
spannung
shooting
chtes
kreislauf
chest
curiosity
ration@@
lebensmittel@@
50.000
jet
plays
recognized
isierung
heilen
stirbt
feind
rice
ang
guide
diskutieren
traditionelle
borders
bes
nte
memories
extent
honey
ktoren
zugleich
hlen
supp@@
ep
ao
physische
papier@@
letting
boundaries
pit@@
expansion
figuring
increases
dialog
diplo@@
transparency
tures
ens@@
hoher
sensi@@
medien@@
andererseits
saßen
zie@@
sat@@
versprechen
diverse
earthquake
season
effizient
review
füße
stahl
0.000
backwards
microscope
recognition
teri@@
zweifel
oberen
,@@
eng
dust
nten
footage
gewöhnt
cricket
exhibition
taucht
play@@
june
destroy
asi@@
zig
codes
continues
harm
wirklichen
dete@@
fordert
repräsentiert
langweilig
zurückkehren
gän@@
frankreich
wards
kir@@
telephone
teilnehmer
so-called
zehn@@
adap@@
chter@@
precisely
aut
1994
frozen
nah@@
collecting
vorträge
stum@@
logik
santa
dienstleistungen
poet
connectome
chirurgen
kette
audio
glaubten
bewirken
terrorism
shu@@
wings
cash
erfassen
…
der-@@
animation
phy@@
blow
geschmack
193@@
insulin
erfinder
succeed
erwähnen
sensor
schaften
reduction
football
interessanterweise
contra@@
cer@@
inch
probability
fünf@@
analysieren
globalization
alization
official
globalisierung
gestaltung
sheep
black@@
apartment
350
industries
origin
brüder
pers
council
mmer
onal
raising
witness
monster
speaker
verließ
dä@@
kung
absor@@
katastrophen
ausdrücken
logo
popul@@
application
aro@@
sammlung
dollar-@@
january
intensive
tedtalks
schnelle
block@@
demonstrate
alexander
yp@@
bewegungs@@
chimpanzees
keyboard
errichten
igkeit
tries
neulich
steuer@@
expertise
achieved
clock
nachhaltige
l.a.
handlungen
breathing
c-@@
glob@@
diagram
inst@@
fasern
elefanten
uh
adapt
chti@@
mail
bicycle
kranken@@
exakt
schöner
berlin
frequenz
stewart
tis
jenen
stufen
reporter
ined
bekann@@
handlung
wild@@
zentral@@
toilet
reli@@
weibliche
frequency
affordable
reichtum
properly
konsumenten
bom@@
erfüllen
tzu@@
rob@@
ax@@
benutzte
zuzu@@
robust
involves
sequenz
ases
senior
aufstieg
endet
vorsichtig
intervention
spenden
architectural
gestartet
verbesserung
zit@@
governance
determined
zählt
schätzung
gste
hawaii
tting
h-@@
electronics
academic
fres@@
foot@@
spur
fixed
cia
irgendwelche
ima@@
doppel@@
höheren
cham@@
anruf
illu@@
co2-@@
fiction
un-@@
afterwards
nobel
ignore
organismus
vulnerability
schwe@@
sub-@@
stämme
contrast
bösen
zufriedenheit
recycling
mid@@
tigkeit
dü@@
flog
bevölkerungs@@
miert
maintain
kaputt
airport
-up
umzu@@
qui@@
mation
bly
personality
salt
enemy
wale
pushing
offers
naked
grandfather
stores
wein
regul@@
umgang
nete
ticket
implan@@
pointed
ten-@@
pp
prototype
attached
goo@@
fließt
worker
balls
denkweise
traveled
magazin
verrückte
rechner
cour@@
persönlichkeit
drill
thrown
vorwärts
deinem
fuels
terin
geh@@
47
tu
rats
insi@@
units
smoke
keinem
stamm@@
nei@@
rad@@
provided
dia
mechanismus
aner
kindes
photographer
erlangen
radio@@
mcdonald
rö@@
ausschließlich
adding
50-@@
nam@@
drew
seats
shed
nick
3,@@
ingenieur
mieren
nerven
3d-@@
liberal
kühl@@
foods
zurückgehen
capitalism
streit@@
impf@@
erwartungen
footprint
gewann
privilege
gedanken@@
opera
weltbevölkerung
dioxide
oldest
paradox
sprin@@
provides
scheitern
ebenen
cker@@
finger@@
calculate
ausnahme
aspects
hn
gerufen
höchste
mand@@
preis@@
1998
intelligente
elsewhere
hearts
konsum
kel@@
ktionen
signed
inklusive
historical
polar@@
güter
addi@@
colony
parti@@
apps
abstra@@
katze
forests
spre@@
fluid
gene@@
usw.
kri@@
tun@@
contribute
altes
cau@@
enz@@
deu@@
mri
gert
nationalen
einrichtung
hire
auftrag
anführer
fascinated
stimulation
gelt
ski@@
ck-@@
ursache
kongress
hinunter
secondly
wahren
wärme
kulturellen
theorien
währ@@
gebildet
dichter
ral
ttert
figuren
band@@
früheren
plenty
bahn@@
führ@@
weltweite
underground
silent
jeweils
drückt
80s
intuitive
opens
robotic
universitäten
sicherer
soviet
strecken
erb@@
fortunately
einheiten
ignorieren
faszinierende
englischen
1950
dominant
breaks
bemerkenswerte
,000
nung
vin@@
hir@@
arctic
autismus
zuge@@
chief
34
inhalte
lieder
ssi@@
knie
autor@@
uren
entgegen@@
sey
elite
nachhaltigkeit
ora
rob
fügen
stammen
97
alisierten
mein@@
includes
väter
millimeter
höhepunkt
tags
rum
tik
dieren
sogenannten
gedächtnis
geber
konzepte
täuschung
entstehung
sieb@@
nerven@@
wahr@@
ations@@
lecture
fabriken
imagined
discuss
begriffen
ozean@@
beer
phantom
blickwinkel
extract
landed
morality
willkommen
denselben
ibm
pharma@@
geraten
fur@@
stop@@
reparieren
gewöhnlich
verschmutzung
wiederholen
sensoren
atlanta
flip
prefer
bergen
homosexu@@
ausgegeben
uss
lac@@
jewish
portraits
winning
grundlegend
uni
macher
path@@
escape
likes
ney
finds
owned
fä@@
shopping
clu@@
describes
counter@@
craig
geri@@
vogel@@
hoben
strecke
irgend@@
consequence
harry
umstände
klo@@
grippe
spin
kap@@
regelmäßig
za
mary
pic@@
static
native
stag
geo@@
stages
symmetrie
articles
künstliche
integration
practices
cartoons
reflect
crying
sheet
verschwindet
temp@@
schlei@@
fache
watts
staats@@
deckt
high@@
kuchen
mammals
ctor
ersetzt
spra@@
ritual
aliens
technische
hea@@
limit
darkness
gst
thr@@
produces
smallpox
holds
ger-@@
benutze
pyramid
lens
rel@@
transfer
pper
suicide
strategies
orchestra
0er
praxis
index
rou@@
klu@@
mochte
wohnen
chteten
lim@@
repli@@
lehrern
physischen
elections
openness
festgestellt
effekte
inches
tempo
alls
neuroscience
od@@
writers
bedeckt
ali
berühmt
hinauf
separated
globally
köpfen
emissionen
belt
vable
dungs@@
aku@@
primitive
schnell@@
rocks
bran@@
pace
corn
knopf
ore@@
improvement
kanal
johnny
löst
musi@@
zucker@@
glei@@
gerung
focusing
aries
diesmal
positions
angesichts
top-@@
photographed
januar
accidents
hit@@
sozialer
hl
dauer
kommunikations@@
quer@@
rely
ausgebildet
best@@
ruhig
dru@@
hmen
erungs@@
wiederholt
.000
1980
oll@@
interactions
unds
nachdenkt
angebot
aff@@
chosen
gezwungen
tzten
kas@@
glasses
tanz@@
reich@@
license
fließen
benutzten
milo
kalten
gemessen
conflicts
behörde
gelb
bol@@
capita
selb@@
dedicated
beschä@@
ruanda
kreiert
sternen
wes@@
amongst
lernten
hinweise
passive
controlling
beijing
searching
ratten
nurses
bescheid
han
vieler
besitz
rescue
här@@
flie@@
dinosaur
196@@
controls
ehr@@
4,000
esen
jugend
investition
lord
industrie@@
komplizierte
summe
profitieren
00@@
cooperation
zukommen
kohlenstoff@@
tempor@@
ingredients
wach@@
spinal
teleskop
130
leistungen
currency
cheaper
volunteers
returned
loud
benen
cute
verbraucht
hop@@
operations
rum@@
hacker
exposed
fts
meditation
cen@@
ärmsten
mapping
2020
spectacular
gon@@
begrenzt
spitzen
videospiele
wk
committed
ass@@
schülern
zeitungen
alphabet
pot
univers@@
parall@@
billig
alan
sharp
fruit
innovations
sensors
gather
entscheidende
hre
empire
memes
initial
ica
irgendwas
mining
excuse
vital
hun@@
ful@@
schwerer
schnitt@@
rosling
schlimmste
vertical
90s
chile
hai
echtes
rop@@
voran@@
speci@@
2030
0,000
enormen
50@@
2012
schein
häusern
fabric
energien
20.000
käfer
äuß@@
fathers
erziehung
doktor
mmen
life-@@
sensory
precise
jail
efforts
aircraft
aufre@@
43
shadow
males
lego
communications
gesunden
störung
encounter
removed
verschieden
shakespeare
bend
hanging
reef
ace
42
losigkeit
concern
gerü@@
privaten
garbage
wunderschönen
angetrieben
schlimm
lichter
vel@@
sitz@@
ining
anbieten
abends
bir@@
harte
observation
consume
tedglobal
hitze
freund@@
ath@@
ire
produkten
contemporary
motoren
graphic
mice
tlichen
einziges
schafts@@
haut@@
association
letz@@
jung@@
l-@@
gewi@@
zunehmen
plot
reported
ent-@@
whit@@
sechs@@
frie@@
rover
werdet
spiritu@@
falle
ecosystems
reicher
außergewöhnliche
aktu@@
neural
verk@@
fotografie
gewöhnliche
kel
sarah
000-@@
gegenüber@@
neighbor
sions@@
1900
bedürfnis
surfaces
christian
researcher
terrain
standard@@
contract
excellent
shots
mische
verletzungen
chung
klassen@@
weltall
qualities
announced
messer
tas@@
jupiter
glich
sacred
elegant
erstaunlichen
ony
evolve
aufrecht
berkeley
ethiopia
underlying
shirt
pay@@
chil@@
+
nachrichten@@
lawyers
fung
biologists
tired
memor@@
kreativ
meister@@
frustration
pump
laid
brei@@
real@@
sag
entwicklungsländer
tribes
impfstoff
geno@@
schulter
kab@@
chemischen
skraft
policies
bäumen
antrieb
eien
ausmacht
wohlbefinden
förder@@
verbrauchen
parties
fears
cats
nahezu
kleinere
gy
diver@@
tations
politisch
verhaltens@@
1990s
säu@@
jonathan
terrorismus
inn@@
streifen
micro-@@
grab@@
diges
f-@@
alle@@
interacting
tuna
drove
stones
fotografiert
bags
swe@@
founded
unlikely
erinnerte
wieviele
aussterben
mixed
persi@@
contains
loser
einzigartig
westliche
angehen
realm
barely
inger
peers
monterey
depressed
schlimmsten
hal
ktiv
storm
nes@@
kuh
hinweis
speicher
dress
rolling
blö@@
hersteller
-to-@@
sleeping
europäischen
grä@@
dimensional
erfüllt
taschen
layers
conclude
fabulous
hirn
zent@@
allgemein
picking
banjo
extended
toilette
cle@@
invite
daughters
musicians
neur@@
artige
korallen
explaining
i.@@
untersuchungen
abuse
colleague
thick
kopieren
gathering
eröffnet
ama@@
gegessen
zwingen
jagen
lü@@
beliefs
frem@@
expor@@
kommen@@
übertragung
neutr@@
beln
transparenz
bip
anfängt
ministerium
profile
pflanzen@@
standpunkt
flash@@
teilte
revolution@@
carl
atom
dlichen
sozial
kolonie
open-@@
zweites
albert
kapitalismus
ante
formation
ego
besitzer
phil@@
discoveries
schwestern
hormone
eve
format
prakti@@
tion-@@
customers
ppen@@
2.000
gebäudes
alice
kombinieren
emerge
teenagers
belie@@
streit
aring
portion
stag@@
ugly
gentleman
anony@@
transplant
engaging
geschützt
thailand
sisters
ceo
esses
pulling
sierra
jh
seeds
reminded
demon@@
ipod
treatments
schein@@
zusätzliche
seil
brustkrebs
gleichheit
shifting
wol@@
unterhalb
bug
dom@@
vermittelt
unterscheidet
perceive
probieren
no-@@
integrated
teilten
verteilen
sierung
schlau
seek
menschlichkeit
historic
schreckliche
host
schaffte
knoten
kation
informed
sing@@
tropfen
emerged
gelangt
hinsichtlich
glamorous
crack
amerikas
detection
facility
abfall
bangladesh
marathon
bold
befreien
viral
volles
sprecher
syndrome
utili@@
auswirkung
plum@@
tip
fit@@
gipfel
kurse
internets
reagiert
refer@@
hingehen
wodurch
kg
graphi@@
gegenstand
ridge
subtle
surprisingly
methods
entschuldigung
cave
receive
wissens
parkinson
ausgehen
smooth
herauszu@@
hh
stir@@
d.
philip
circles
ga
injury
klingen
bier
wundervoll
swa@@
nimm
agricultural
hard@@
ut
futter
pants
artistic
nerve
will@@
administration
diagnosed
brenn@@
vorn
weiten
bewe@@
spä@@
array
prozesse
glückliche
reports
gy@@
ktes
surgeons
ners
reduced
bord
mittelpunkt
bond
ohr
atem
raub@@
verse
frog
classical
zukünftige
gib
pft
inmitten
iness
tated
symboli@@
clever@@
geni@@
misst
climbing
lebensqualität
sicherstellen
eingehen
forgotten
diagno@@
würdest
waschen
tigt
tages@@
ballon
pointing
subway
lock
crossing
mati@@
wünschen
sich@@
shrimp
inspiri@@
volks@@
sach@@
occasionally
coloni@@
öffentlich
gründer
flows
trieb
fahrrad
fett@@
partei
ansichten
seattle
statistik
vorkommen
vin
protecting
übersetzt
silly
toes
bele@@
vierten
with@@
frag@@
allgemeine
roman@@
missed
tät
geräten
wundervollen
run@@
kreuz@@
entwurf
erledigt
mechan@@
ungsprozess
miracle
lungen
dumm
yours
nisse
sales
orchester
unsichtbar
favor
schwarzes
comic
190@@
spiels
pigs
trajectory
gesichts@@
grace
jefferson
ban
hungry
cable
chirurg
stigen
someday
urban@@
soup
sebastian
cluster
96
fabri@@
chtung
robotics
ups
ältesten
ky@@
papa
ami
zurückkommen
warf
react
verlangt
stau@@
expectancy
prototypen
originally
isch@@
buddha
views
194@@
finanziert
tracks
armed
wolfram
agent
royal
jährlich
liter
sputnik
31
biop@@
schafften
stahl@@
durfte
hmm
entdeckten
ier@@
buried
tent
unbelievable
failing
großvater
pose
kiste
ogra@@
shelf
clients
resilience
cross-@@
analyze
winds
bären
websites
zusammenge@@
predictions
ruft
minim@@
pad
zusammenzu@@
pel@@
barrel
outer
ama
schreibe
anonymous
hauses
ordnen
meal
citizen
krab@@
bienen@@
legten
tension
actors
labs
bomben
atem@@
gall@@
2-@@
polar
rent
mannes
bag@@
optimism
ill
ch-@@
religiöse
abendessen
insurance
resolution
wissenschafts@@
anreize
tesla
thus
burg
überlebt
luck
lawyer
selektion
tote
nachhaltig
worthy
julian
beg@@
tap
kolle@@
delivered
proper
ligen
off@@
mikroskop
rebuild
tolles
richer
geblieben
kapit@@
experiment@@
banks
moment@@
loc@@
wirtschaft@@
predicted
fernseher
simon
briefly
geschlossen
becken
bruce
vorgestellt
alisi@@
kick
debt
schlange
cake
bedeutend
the-@@
boss
suggesting
rarely
pfei@@
besie@@
beschreibung
hall@@
beglei@@
bauer
märkten
proportion
betreten
offenheit
optimismus
dens
wilson
38
schieben
dringen
curriculum
zeichnung
heran
landete
sang
chin@@
trainieren
cap
saudi
kauft
dive
ored
upset
indiens
befassen
einzigartige
fragile
painted
entrepreneur
waters
gefä@@
skeleton
domestic
regret
sig@@
prozesses
captured
ti
basierte
iting
geöffnet
finanzieren
erkunden
backs
exam@@
runter@@
1995
dr
schwanz
rechnung
quad@@
home@@
coke
irgendein
archie
crops
expectations
ursprüngliche
fits
genocide
getestet
gerissen
führenden
sub-saharan
heimat
scre@@
til@@
merely
jerusalem
halben
pro-@@
cord
frucht@@
körpern
jellyfish
ids
suggested
packt
graphics
archi@@
gged
tragödie
fda
une
schienen
ek
essed
durchmesser
bern
buil@@
opti@@
cycles
refle@@
beträgt
essence
güte
dramatisch
aktuellen
amed
bats
external
characteristics
lücke
behaupte
meta@@
wunderschön
zuletzt
1997
ately
profits
tiv@@
neugierig
academy
bezieht
youth
dear
coca-cola
scales
bahnen
susan
fischer
diplomat
propaganda
instructions
bandbreite
aims
respe@@
mar
bou@@
nurse
kapital@@
computation
atome
cations
skull
ading
wütend
betrieb
lese
24@@
keith
gelaufen
onkel
erei
danken
chron@@
klassische
geh
hebt
erfuhr
komm@@
mischung
dozens
ord@@
disch
sendung
buches
abteilung
massen
pet
lehrerin
neutral
shit
cheese
feld@@
aden
wildlife
budgets
served
52
isiert
linke
pitch
virtuellen
austausch
programming
domain
füßen
suspect
summit
hypothese
weapon
soziales
pazifik
herein
dness
gewinnt
advis@@
bens
richter
depth
brooklyn
..
katzen
inv@@
jo
auffassung
beinen
gallery
scham
ktion@@
begun
reveal
defi@@
verstän@@
dolphin
überqueren
promote
law@@
einschließlich
unendlich
irgendeiner
einblick
wash
traditions
belong
gefängnis@@
neh@@
jamie
gemeinschaft@@
suchten
entering
ists
änderte
bedro@@
organis@@
fires
israeli@@
symbols
ebay
blan@@
wissens@@
ag
hoffnungs@@
scha@@
kooperation
86
sh
gle@@
whatsoever
erfindungen
million@@
behandlungen
deuten
alists
genetics
insights
verlor
hle
lle
überprüfen
staatlichen
handelte
october
ological
caring
skulptur
cement
beha@@
leverage
stets
grateful
raff@@
komplexer
aufregende
norm
tren@@
scra@@
heiraten
ologische
free@@
gotta
drum
objekten
pursue
dreimal
hitting
sciences
struggling
isten
ack
erledigen
niedri@@
selbst-@@
consciously
neun@@
kro@@
bart
elf
gewissermaßen
expanding
beginne
verliebt
meint
fortunate
som@@
ängste
alb@@
harvest
liebt
nochmals
ack@@
pound
elegan@@
dictionary
elderly
cosmic
verfügen
allgemein@@
ances
vacuum
erfordert
kelly
meere
stig
theories
40@@
freu@@
strahlen
rick
mines
tes@@
reserve
quadrat
gestaltet
potent
kills
roh@@
hilfsmittel
inse@@
komisch
canopy
guns
kosovo
pandemic
redet
extinction
spu@@
it-@@
ationen
berühmten
criminal
stroke
bears
fting
senken
weltbank
isolation
flag
defe@@
revenue
investig@@
programmiert
ome
collaborative
instant
browser
echter
erzielen
atomic
plastics
auseinander@@
doktor@@
attract
crucial
advance
consistent
seln
greif@@
gerin
produktivität
goliath
entgegen
blü@@
ckten
auszudrücken
ination
amen
tables
nd
dies@@
dankbar
prepare
vent@@
oktober
bruch
restore
italy
tode
angestellten
gesundheitssystem
optimistisch
scores
stin@@
quer
hills
immun@@
wirbel@@
freuen
ktiven
hypothesis
impor@@
interviewer
mist
repeat
heil@@
transport@@
flaschen
irgend
netzwerken
sign@@
angepasst
einstellen
einwohner
ausführen
draussen
leit@@
puzzles
euer
contain
richtet
anzugehen
mainstream
werken
mechanisms
diving
eness
asse
beobachtung
verurteilt
biodiversity
unterhalten
1980s
zentimeter
stiegen
tafel
klettern
anzuschauen
mayor
key@@
lieb@@
brow@@
dende
biologist
muskel@@
tiles
hem@@
allzu
tent@@
bedeuten@@
matische
schrei@@
gesetz@@
alities
weibchen
städtischen
schle@@
attitude
bound
tain
chairs
gangs
verarbeiten
erfand
religiösen
erst@@
universities
reminds
anzeige
vielzahl
verarbeitung
redu@@
airplanes
measures
wandern
verhindert
silver
tränen
rela@@
gerüst
kannten
evolution@@
aw@@
läu@@
definitiv
fru@@
february
verdammt
teilnehmen
tur
festival
lic
bewegte
sentences
pyramide
seide
glad
werkzeugen
sely
weh
furcht@@
marken@@
bangalore
pati@@
strangers
spielten
immediate
minimum
2015
kohle@@
industriellen
hlt
kil@@
öfter
zentr@@
deserve
egg
covering
ella
preserve
kram
boom@@
3.000
imagery
geburts@@
imaging
rings
zwanzig
pushed
phenomena
mon
fels
woods
kilo
tears
röntgen@@
zeu@@
50s
pipeline
langwei@@
replicate
berühmte
sorgt
paralyzed
skala
zentralen
algorithmus
rt
hunt
30,000
dire@@
abel
mächtige
bee@@
änder
gelder
sab@@
mushroom
widerspruch
4,@@
auftreten
reliable
cotton
experimental
impacts
dns
fehler@@
blame
vermute
damn
brüche
haw@@
februar
brau@@
columbia
halt@@
aufzeichnungen
stry
scheibe
angeschaut
brad
anhalten
übt
erfol@@
a.@@
fantastischen
diktat@@
russian
fremde
bürgermeister
zel@@
besonderes
bach
document
dopamine
skali@@
partly
vereinten
was@@
description
cont@@
hte
emails
autoren
winzige
heart@@
labor@@
turkey
huh
geschü@@
übergang
bowl
earn
königin
anhänger
algorithm
ungeheuer
resistant
span@@
threw
gelände
brain@@
anstellen
kredit@@
behörden
stän@@
republic
bedroht
prostate
perfekten
dustrie
dropping
rettung
stops
empathie
erforschung
cousins
grades
aktiven
rachel
flowing
canyon
penguin
gelehrt
rab@@
proposed
juni
owner
hindurch
realizing
verzweiflung
erschien
toy
bewer@@
mysteri@@
reale
poesie
successfully
ungleichheit
schnee
moralisch
translation
panels
gedreht
discovering
haar
int
technisch
titel@@
involviert
colored
extend
lations
ungspro@@
tissues
continuing
adopted
heutige
holy
horizon
raumes
posing
uncle
emotionalen
devil
verringern
projekts
schickten
zipcar
francis
kreise
dreh@@
kindersterblichkeit
feu@@
lobby
beziehen
defen@@
kennedy
1996
washing
smarter
täglichen
staying
dicht
blick@@
manipulation
steam
wut
nathan
watson
15-@@
fassen
tical
zeugs
durchschnitt@@
holt
dere
eless
lou@@
neuesten
enes
ensure
improving
part@@
bam@@
cus
sixth
getragen
ameise
answered
adi@@
anerkennung
accepted
conf@@
ethanol
träger
gradually
straf@@
unfair
uncomfortable
ausgewählt
strafe
konstruktion
jon@@
vitamin
stabilität
sheets
weitermachen
ungs-@@
grandchildren
essen@@
zielen
strasse
tendency
rapid
mithilfe
eling
eingeschlossen
anzug
kter
italien
tribe
namibia
beschei@@
passage
einführung
initially
sits
shelter
discipline
supported
spli@@
ausgabe
forum
leeren
erhielten
high-tech
connects
abenteuer
mier@@
genaue
album
liert
platte
blau@@
iss
schaf@@
sauerstoff@@
ce-@@
anders@@
genetisch
umher@@
boo@@
kin
schmerz@@
bi
consul@@
einfluss@@
lächerlich
zur@@
chor
louis
schreibtisch
instantly
langes
shine
vortrags
25@@
retina
rope
mir@@
stattfindet
‹
kolonien
weinen
platten
›
gordon
sudan
bottles
alternativen
tune
matt
nahme
asteroiden
mangel@@
einkommens@@
kopie
dawn
geredet
eröffnen
gonna
voraussagen
apollo
gang@@
dvd
alaska
bow@@
trei@@
odds
flut
deaf
schwierigen
nachfrage
bedienen
anda
hell@@
fibers
mustern
billi@@
strahl@@
staub
got@@
ungsp@@
drivers
affects
worms
wie@@
bewirkt
konta@@
generating
negativ
impression
lust
mel
methane
aber@@
ener@@
terribly
wuchsen
channels
individuelle
sus@@
schie@@
visited
großartiges
krie@@
bb@@
metall
schütteln
schätze
plug
kenn@@
schriftsteller
individuum
tisch@@
kindergarten
hm@@
tauschen
tätigkeit
demokratischen
1970s
and-@@
capability
serving
homework
permission
passenger
cab@@
gesucht
six-@@
compli@@
mern
hear@@
-and-@@
wollt
wers
exponential
signature
ena
maus@@
clear@@
passi@@
detailed
gradu@@
transplan@@
stür@@
dal
käme
produ@@
gewinn@@
wheelchair
powerpoint
mittagessen
besides
aufmerksam
inevitable
nano@@
mobil@@
facilities
nac@@
sphäre
zukunfts@@
mentor
yor@@
rhythmus
tubes
trash
geheimnisse
lers
brett
metall@@
kohlendioxid
schwerkraft
1984
vieren
elizabeth
hm
tum@@
synchron@@
verdoppelt
reiste
offenbar
dienst@@
translated
geometry
präsentieren
crew
fraction
mount
gering@@
ue
werk@@
unding
kreaturen
schlaf
ele
energieverbrauch
iling
dio@@
greift
indische
slavery
book@@
ries
euro
expecting
ny@@
zeichnet
dave
überwachen
konzep@@
bewerten
durchzuführen
freundlich
industrielle
belast@@
lagern
thri@@
ik@@
betracht
stad@@
gehör
oberflächen
maßen
wheat
mauer
netze
berechnung
warning
district
zusehen
goldene
oliver
genetically
mitt@@
demographic
schrecklichen
merkmale
migr@@
nike
mathematische
untere
stack
bucks
widmen
herkunft
schwei@@
hybri@@
extension
flughafen
comparison
pockets
kan
schenken
ktor
cape
conservative
elected
alters@@
verbrennen
mobili@@
representation
aufgeben
bulb
isst
pretend
warren
ushahidi
reducing
neat
segment
doors
philosopher
leaf
oth@@
stab@@
2.0
vertrag
oms
gele@@
ins@@
antarctica
führungs@@
magnet
lärm
genom@@
programmierer
gegenstände
refer
eingestellt
glu@@
ok@@
suppe
haar@@
berechnet
cows
builds
spin@@
psychologen
antly
mac
hawking
frühling
alltag
port
förderung
töchter
gefolgt
hindernisse
wissenschaftlich
gen-@@
julia
bombe
armstrong
steigern
neil
restri@@
wachsende
teu@@
einzusetzen
experiencing
acy
trains
charges
tanzania
bedauern
sonnensystem
min
unglücklicherweise
ungewöhnlich
automobile
schlaf@@
zung
stete
nern
türkei
tendenz
att@@
founder
oned
beschränkt
conducted
phoenix
clothing
briefe
stability
acted
billiger
gehalt
etc.
fang
durcheinander
dn@@
dialogue
hölle
abilities
shoots
fantasie
maximum
umsetzen
impulse
darzustellen
herrscht
thir@@
fastest
nordamerika
experte
effe@@
anzeichen
redwood
künstlerin
rezept
bubbles
zulassen
lama
hunderten
felsen
remembered
visi@@
llen
clubs
spei@@
tone
amt
fotografieren
insect
musician
dest@@
elled
dienste
oo@@
linge
bewusstseins
elementary
gehend
enables
schnei@@
rep@@
rechen@@
motto
125
reichweite
erbe
pollin@@
elektronik
räder
frustrated
kins
edinburgh
verstecken
emily
hook
power@@
toys
identified
kommenden
tragic
agencies
cir@@
30@@
bringe
startete
visions
sj
miserable
infection
fokussieren
1945
inging
kapazität
ehemann
schauspieler
kibera
flat@@
oel
tokyo
well@@
equ@@
kante
pumpen
prüfen
fuhren
carpet
wohnungen
beruf@@
remained
gener
barry
tiker
ologischen
fancy
wachstums
label
holte
klimawandels
server
located
wüssten
ty-@@
wette
unfälle
yves
entropy
completed
disney
inventor
december
wheels
umgebungen
kandidaten
bad@@
schmutz@@
strike
einziger
suck
arrive
edges
informa@@
uncertainty
großeltern
effizienter
heli@@
camps
verrückten
gorgeous
urknall
luther
smoking
banker
gur@@
eted
strings
treppe
cuts
polizei@@
verkauf
montana
bestes
nerves
wertvoll
gained
park@@
gent@@
thro@@
gram@@
sinken
gewalt@@
hotels
ubiquitous
bett@@
großartiger
inf@@
gucken
luckily
195@@
remaining
os@@
wörtlich
ctors
ownership
hinaus@@
established
whi@@
attractive
tollen
infe@@
betra@@
überlebens@@
gelähmt
obser@@
beten
accounts
mechanismen
fans
betonen
seas
ata
schädel
geschäft@@
museums
überzeugung
bereiten
natasha
mende
umzusetzen
nowadays
ankommt
kehr@@
verkaufte
korrekt
folgte
technologische
sac@@
tail@@
alt@@
bindung
dist@@
sunday
stunts
statue
ma-@@
formt
database
tho@@
boats
demo
dezember
gh
verb
thei@@
erkenntnisse
speichern
zir@@
gestiegen
chirurgie
dp
skelett
währung
muslime
scanning
taschen@@
verletz@@
ross
elephants
investing
terroristen
marken
ärzten
finanziellen
objective
leber
ständige
gemäß
breakfast
76
tends
indus
ecological
berry
rä@@
hinweisen
tötet
confident
kauf@@
eye@@
behälter
emergence
hierbei
geheim@@
mom@@
moma
verwandten
isolated
professionals
fähi@@
das@@
finan@@
direktor
jedesmal
elev@@
versions
endangered
tia
sustain
fachen
keln
behauptet
interior
überraschende
asthma
gaps
rhythm
erectus
bmw
barrier
endste
hügel
gewaltige
prisoners
ör@@
ane
supplies
appearance
promised
geflogen
inequality
finanzielle
interven@@
loves
6,000
shocking
alisierte
senti@@
navi@@
vielmals
spain
geschnitten
unterbrochen
4.@@
anspruchs@@
leap
ausschnitt
wealthy
sammelt
differenti@@
hunting
schulden
aufeinander
alarm
züchten
reser@@
firm
nant
formel
id@@
kis@@
ceiling
zwölf
venture
relev@@
pittsburgh
dick@@
annahmen
lun@@
panel
ketten
bren@@
documents
deception
händler
gases
chee@@
auswählen
michigan
gil@@
neck
deck
uniform
harmony
unhappy
kognitive
bow
balken
pled
are@@
hör
wooden
hydr@@
altitude
command
ungssystem
veränder@@
setze
physician
begleitet
recover
stab
fertig@@
geometrie
erzählung
erwähnte
sensation
protest
ratio
schokolade
belieb@@
matischen
included
quit
inti@@
coole
breite
commons
verbreitete
max
gut@@
skulpturen
narrow
besuch
substance
assumptions
anwälte
profoundly
first-@@
beschleunigen
voting
erzählten
dalai
kts
bed@@
kombiniert
convert
fotograf
trainiert
monat@@
reißen
gles
sno@@
spezifische
genie
stör@@
minen
kluft
zelt
knochen@@
blank
lappen
broad
phosphorus
arch@@
aero@@
dutch
needle
over-@@
tos
gewöhnlichen
innocent
laughing
mauern
mäßig
entropie
planes
beliebt
atu@@
presents
grandparents
gation
demands
beeindruckend
techniker
chtern
antarktis
dop@@
entwicklungen
prü@@
neugier
mitteilen
waffen@@
diskussionen
persu@@
konsumieren
britische
ffel
printer
burden
aussah
download
blogger
cen
tattoo
gelegenheiten
jur@@
comment
rap@@
ausprobieren
ery
mere
market@@
leere
git@@
virgin
engineered
our@@
supporting
erend
gelbe
privacy
delivery
esse
obstacles
ampli@@
termin@@
mck@@
dressed
agu@@
vaters
marker
sierte
bulbs
sprech@@
beizubringen
oli@@
einnahmen
rakete
poin@@
unabhängige
brücken
mr@@
spanish
q
coach
tering
moses
gelang
zivili@@
e.
unrecht
spec@@
anweisungen
fuer
fate
demokratische
liberia
prevention
bewahr@@
ands
städ@@
fäden
prophe@@
erstaunt
morph@@
arguing
slum
radikal
frauen@@
mysterious
yn@@
kriti@@
ji@@
chinas
alters
journalisten
verhält
80@@
ehren
kt@@
erfasst
exception
venezuela
compassionate
reihenfolge
stie@@
denkst
beri@@
schweine
diana
kansas
krea@@
verletzt
nutzten
atur
closing
gecko
herein@@
horizont
erfahr@@
cousin
ghts
aggressive
mix@@
eting
sitze
verletzlichkeit
oning
pleasant
bs@@
fairness
omen
team@@
precious
sendet
gänge
tackle
renaissance
anpassung
compelling
massachusetts
verdi@@
landes@@
alizing
adoption
wellen@@
primarily
veranstaltung
threats
heiligen
büros
aquarium
day@@
distances
verschwendung
ursprünglichen
wortes
überlassen
gieren
tem@@
eds
approaching
pflege@@
cer
herstellt
poses
nuts
performed
banking
incentive
estimated
normales
seiden@@
vas@@
plu@@
factories
transformative
origins
200-@@
stel
liegenden
zueinander
darm
gefährliche
ozeans
neocortex
sydney
mers
vegetables
joel
räum@@
weit@@
greek
walker
earliest
smallest
finanzierung
tedmed
chim@@
elli@@
gewinne
bewohn@@
wasch@@
auftauchen
dec@@
5-@@
notwendigkeit
venti@@
andro@@
plankton
trocken@@
angelegenheit
kerin
hammer
umgekehrt
es-@@
planung
häu@@
chtete
sieben@@
zieh@@
essing
drüber
intelligenten
offices
hed
zweiter
jihad
herrschaft
analogy
hes
sale
ständen
1989
vat@@
gathered
drinnen
jumped
logisch
zwan@@
geschlecht
schten
weist
wett@@
entschlossen
graham
1991
mond@@
gewiesen
flash
wachstums@@
occurs
throwing
vertre@@
chem@@
contrary
fungi
widely
säule
helpful
marki@@
participants
gui@@
sm
beneath
gangs@@
ket@@
gesetzen
judgment
kru@@
sicherzustellen
bet@@
imp@@
cameron
treib@@
lege
proposition
leitungen
vaccin@@
petro@@
delta
simpler
simultaneously
storage
4-@@
mathematicians
continents
wires
mais
fühlten
loaded
ett
kurzer
überzeu@@
physicists
virtuelle
plain
ox@@
gewinner
anzunehmen
steinen
kol@@
blog@@
konzentration
anliegen
autonomous
aktive
pie
ivan
koordin@@
ün@@
itäten
geformt
glue
natürlicher
180
1.
bedeutungs@@
konstruk@@
infections
connectivity
terrorists
kum@@
forschungen
privileg
gging
award
yards
horror
gie@@
variable
enter@@
rivers
ffer
doc@@
collapsed
oring
warte
pris@@
onstage
construct
cus@@
homeless
leather
kiribati
gering
sty@@
globaler
roy
tig@@
aktiviert
peri@@
stö@@
circuits
mates
1,5
aufwand
cratic
magical
gewä@@
span
carnegie
beu@@
repräsentieren
und-@@
kategorien
treasure
beschützen
solarenergie
studien@@
ecology
namely
couch
griffen
ignor@@
predictable
viertel@@
threshold
ökonomischen
independence
annual
constructed
reactor
atomenergie
spare
poten@@
gelingt
englische
wea@@
disziplin
ani
hamburger
mentally
v.
symbole
ökonomie
verste@@
durchschnittlich
norman
branch
swi@@
dic@@
gps-@@
or-@@
counting
erreichte
meile
ye
seal
j.
unmittelbar
widerstand
procedure
cliff
unglaubliches
reefs
eigentlichen
sni@@
tamiflu
anfingen
robo@@
klinische
deutet
red@@
neighborhoods
kühe
exc@@
observe
attra@@
similarly
scri@@
cancers
kreisen
adapted
rehabilitation
satelliten
hilfreich
graphy
uk
elektronische
traits
trin@@
pocken
portugal
headlines
täuschen
chat@@
reasonable
lett
rüber
invested
jar@@
läch@@
leitet
klar@@
audiences
schuldig
confused
jackson
komplette
transi@@
tert
interpre@@
freely
menschlich
klug
zutiefst
knife
leihen
heits@@
gefü@@
pride
oten
assemble
stün@@
unwahrscheinlich
healthier
eti@@
assumption
branches
dul@@
folds
alistic
big@@
mie@@
einnehmen
skeletal
versetzen
activist
crowd@@
rain@@
höhle
bono
klassischen
teszler
programmier@@
harbor
verdoppeln
topo@@
wettbewer@@
fossilen
wasserstoff
investoren
packed
proven
klappt
teppich
pairs
limitations
grasp
electron
biosphere
sicheren
stig@@
grant
wichtigkeit
treff@@
denden
wahrschein@@
häufiger
lowest
unklar
rainforest
á@@
verraten
64
lungs
abstand
client
ecken
dol@@
spen@@
woke
unternehmer@@
komplexes
zehen
colonies
bia
löwen
package
khan
größeres
beendet
microbial
evan
spray
lichts
thes@@
analogie
partnership
prior
ph.d.
inge
syste@@
relief
betr@@
downtown
suffered
engines
transforming
brilli@@
trie@@
arbeitsplätze
selfish
grau@@
planetary
elektroden
verzweifelt
antibiotics
supermarkt
erweitert
purposes
entsprechend
mathematician
chens
stens
yl@@
farms
grave
illustrate
ddle
vielerlei
offering
brille
cooper
kore@@
jill
customer
diagnostiziert
feldern
abgeschlossen
delicious
philadelphia
gereist
beteiligen
assi@@
tliche
civilizations
niedrig
expressions
sri
dos
vermis@@
blogging
identifi@@
dörfer
fought
wechselt
großem
bildschir@@
oper
tch@@
inder
kleineren
islamischen
strongly
capabilities
bath
arabic
eaten
berichte
kolum@@
handed
lokal
guinea
frontal
brush
hlte
publishing
ingenieur@@
simul@@
mmt
d.c.
defining
bled
jenem
pau@@
aufzunehmen
princeton
nervenzellen
fleisch@@
blieben
influenced
fg
140
bble
kas
17.
verletzung
farming
additional
bige
achievement
tolerance
alli@@
besserer
°
icon
concert
profession@@
commit
deals
wetter@@
pennsylvania
nairobi
angeboten
nutrients
spannend
jer@@
gestalt
guardian
ari
baby@@
despair
landschaften
briga@@
blume
muskel
still@@
schlage
ordnet
verbin@@
wohnung
adventure
leer
80ern
strands
belastung
dial
deln
stattfinden
kim
bombs
chur@@
nirgendwo
sb
ladung
hired
freiwilligen
tibet
urge
bakterium
teils
full-@@
ausreichend
vessel
significantly
jan
destiny
closest
rut@@
communic@@
corporation
lampe
bislang
dough
geor@@
appar@@
herangehensweise
republikaner
atur@@
trü@@
ethnic
melt
swiss
line@@
seins
utes
zers
soldier
zustimmen
vern@@
eight-@@
explored
diameter
spannen@@
cholera
texte
wildnis
integrate
angekommen
favor@@
renewable
trä@@
gesellschaftlichen
shocked
arz@@
spanien
ankommen
verwaltung
ay@@
philanthropy
gerecht
creator
abhängt
ernähr@@
infektionen
nadel
regard
toleranz
extrem@@
durchs
intriguing
passes
atz
detroit
generous
wirtschaftswachstum
kräf@@
1970
europäische
draht
ira@@
treibstoff
stück@@
sink
masters
smartphone
wiegt
normal@@
berühm@@
meanwhile
previously
beizu@@
boden@@
täten
dele@@
reiß@@
zugehen
nien
quot@@
12-@@
flogen
mud
primi@@
nette
öffnete
believes
republik
prof@@
marrow
riesiger
schuf
retirement
rand@@
aufstellen
bridges
stä@@
medikamenten
unterrichtet
hyper-@@
qatar
delfine
fettleibigkeit
gravitation
migration
empowered
entfernten
fat@@
ipad
improved
beating
süß@@
immense
alig@@
human-@@
abschnitt
ausser@@
lists
ille
clon@@
wesentliche
wachsenden
gewachsen
leu@@
hoff@@
strip
ili@@
gear
substanz
zugän@@
schäden
mor
säulen
visualization
cian
dutzende
yourselves
bestandteil
kreis@@
autorität
erstaun@@
targets
verwirklichen
inje@@
yield
auflösung
attitudes
wörterbuch
deci@@
propose
sue
personalized
main@@
verbraucher
tized
technically
lot@@
cellular
thy
marketplace
erlaubnis
prin@@
brief@@
zudem
realistic
auslö@@
ro
prozent@@
kilometern
süchtig
threatened
klei@@
vergleich@@
mies
integriert
individuellen
pills
unsichtbaren
unprecedented
gesteuert
traditionen
marschi@@
nigerian
natürliches
transportieren
ttern
keits@@
teenage
basieren
steal
lebensraum
logical
foundations
mam@@
lektionen
matik
classrooms
tured
yale
bildungssystem
divi@@
occurring
punk@@
blown
coo@@
bestäu@@
ur-@@
gkeiten
leone
scope
keys
troops
ington
krankheits@@
improvisation
30.000
nachmittag
begab@@
enceladus
terrifying
drän@@
eingebaut
lern
freue
unable
correctly
beleuchtung
zoomen
pä@@
boy@@
thers
secrets
gestal@@
kriegt
ols
frühe
halfen
celsius
fließ@@
vorder@@
ented
musli@@
klassi@@
bohr@@
insu@@
höchst
halbes
pus
disabled
versorgt
spill
healing
opfern
myth
20s
veri@@
approved
angesicht
gods
mosquito
pandemie
benannt
sym@@
früchte
tatsächliche
juan
mating
newspapers
landet
ex-@@
unsicherheit
ee
tongue
roboter@@
wahrscheinlicher
dominated
berührung
geeignet
cool@@
redner
competitive
bak@@
flüssi@@
mari@@
450
affecting
dylan
zones
anxiety
sichti@@
transmission
radikale
experimentieren
tür@@
kidney
than@@
rod
blicke
fox
ements
rückwärts
ziehe
literacy
schlagzeilen
file
schwan@@
straightforward
outs
bela@@
terri@@
töne
handels@@
geschle@@
enabled
generell
60@@
ckers
aters
foster
rollstuhl
tasman@@
hilfs@@
trugen
z-@@
näch@@
u-bahn
boot@@
smiling
extraordinarily
äthiopien
reflection
williams
gewaltigen
prosthetic
leitung
ome@@
eurer
schöpf@@
lehrt
olo@@
lingen
spielzeug
schließ@@
controller
inne@@
gerichtet
komponente
category
scenes
electrodes
physikalischen
bundes@@
tioned
biologisch
lessly
toronto
et-@@
vation
difficulty
gött@@
motivieren
durchbruch
koch@@
guarantee
bite
rus@@
pick@@
nahe@@
premierminister
formula
socially
mio.
krankenhäuser
israeli
schläge
0ern
forgot
fluores@@
sele@@
verläuft
zurzeit
worfen
sth@@
44
leds
trick@@
endete
meinungen
restlichen
temple
shei@@
unbekannte
verknüpft
gefühlen
stol@@
ald
ethik
wick@@
read@@
unterwasser@@
heilige
categories
mente
heiße
festhalten
scenario
simu@@
investors
negativen
glaub@@
trace
irrational
kurzes
kalorien
biosphäre
verblüffend
mechanics
zun@@
berufs@@
blinde
organ@@
believing
wells
zweieinhalb
kanischen
merkt
vice
18.
gere@@
halluzinationen
two-thirds
sion@@
ental
fär@@
choir
dschihad
schloss
electrons
produktions@@
errors
rauch
löschen
aming
niemandem
erschafft
konstruieren
runde
nick@@
gä@@
construc@@
authorities
abschließen
interviewed
recipe
riecht
problem@@
after@@
motivated
zug@@
ausgedrückt
burst
klinischen
theoretical
walmart
1968
denial
magnificent
choosing
gebunden
flucht
adver@@
verständlich
breeding
picks
spacecraft
burned
7.@@
iq
compete
erneu@@
quanten@@
bewältigen
corporations
ökosysteme
liefen
flach
antibiotika
verschieben
four@@
mai
chop
schweren
dörfern
dependence
ernten
shortly
symmetr@@
bzw.
tual
arizona
vergleicht
telescopes
digit
replaced
navigate
calories
distinct
seeking
stepped
jenes
runden
schuss
radius
einerseits
aked
fakt
sible
mitgebracht
stretch
jac@@
blue@@
erlernen
größenordnung
stimm@@
tik@@
insane
selves
helicopter
stieß
wirtschaftlich
unglücklich
impressive
dev@@
hardest
dosis
polizisten
typischen
bombar@@
teen
nahrungsmittel
tear
einig
modifi@@
zustellen
ongoing
apartments
redete
ho
exposure
fried@@
einzig
reactions
metaphern
gravi@@
coin
sensing
neurolog@@
schwimmt
parteien
motiviert
gelben
attac@@
schöpfung
willi@@
gle
atheist
erkrankung
dys@@
schwein@@
competing
verwandt
bunker
eben@@
ased
profession
indians
decrease
vergrößern
mp
gyrus
prediction
lager@@
angestellte
educate
hierfür
motiv@@
institutional
zivilisationen
pling
parliament
proposal
wüsste
arily
intention
tatsächlichen
spezial@@
darwin@@
tivi@@
fortschritt@@
forma@@
bertie
patho@@
confront
division
akte
thi@@
bie
av
klavier
pill
approaches
generieren
timing
wri@@
sank
missions
fundament@@
raketen
surrounding
recession
truths
holi@@
ous@@
agieren
unsichtbare
hero@@
italian
mitleid
dation
babbage
oper@@
galapagos
vorbild
skep@@
kliniken
intensity
sinkt
wörtern
gelegentlich
contribution
sections
lic@@
equality
keines
mage
challenged
erlaubte
karten@@
tide
july
drängt
renewables
plates
joy@@
sinnes@@
authentic
text@@
künstlern
wur@@
schreien
1993
sexuelle
jugendlichen
heilung
resul@@
erneuerbare
lagos
dlicher
beton
modul@@
afgh@@
afrikan@@
durchlaufen
encouraging
schreck@@
60ern
genannten
hütte
typische
box@@
harm@@
nonprofit
masses
gated
exponenti@@
coat
geschossen
daneben
alog@@
clue
bewaff@@
applying
goodbye
nearby
beeindruckt
charged
spieler@@
torture
ideo
formu@@
erkenn@@
versehen
programmen
beschäftigte
59
verleihen
zettel
praktische
wal
ular
eventuell
locken
drag
philosophen
sonde
encyclopedia
historically
lottery
boote
ganz@@
einzigartigen
freiwillige
teaches
arab@@
haushalt
wra@@
patent@@
befand
anzuwenden
chase
concentrated
locations
participation
you@@
pursuit
lux@@
pflanzt
reis
junk
woanders
squid
clips
civili@@
badly
schachtel
zierung
schleife
evolving
elling
sars
spruch
starbucks
actively
rückseite
communicating
jason
deck@@
sturm
200,000
kino
psychologists
volunteer
gelen@@
94
geringer
eisen@@
schalter
licherweise
dding
steuert
bezahl@@
kritische
reagan
storytelling
geogra@@
texting
reveals
ergebnissen
tionally
lunge
hypothe@@
passte
staatliche
genau@@
census
minority
horizontal
acid
tanks
schwung
kunde
auslösen
astrolab@@
7,@@
ein-@@
dür@@
ander
lab@@
bewiesen
bigen
konzentrierte
die@@
gewohnheiten
herausstellt
stammes@@
karen
but@@
elektronen
voted
life@@
leinwand
merkmal
genehmi@@
kau@@
renn@@
decor@@
alcohol
körperliche
würdig
veröffentlichte
camel
mili@@
sett@@
anwalt
sized
epo@@
eigentum
beschleunigt
ograph@@
primaten
hektar
victim
wachte
typisch
ungsweise
cylinder
kortex
chances
que@@
tempest
courses
bc
einführen
aktivieren
selected
männ@@
steh@@
intensiv
glimpse
faltet
investments
klare
irri@@
wag@@
truppen
enjoying
arrested
gründeten
potenti@@
arbeitsplatz
männliche
dallas
treu
honestly
investi@@
bereitet
kapu@@
worrying
hiding
ency
invasive
stung
horses
officer
wage
e-mails
spezifischen
open@@
ermutigen
penis
verantwortungs@@
grippe@@
regardless
schlüsse
caltech
geschä@@
rupt
ökonomische
wartete
mas
beispielen
herbst
mind@@
verab@@
blinden
politischer
4.000
six@@
brasili@@
70ern
ignored
katrina
winter@@
ireland
ram
chts
liebsten
geplant
krankenhäusern
betrachtung
beutel@@
bemühungen
chromosome
akzeptiert
speaks
symphony
krähen
zehntausende
frau@@
marry
radically
fügt
dic
demokraten
nütz@@
heating
drawings
costa
sna@@
spreads
dden
curves
schnellen
of-@@
safer
kind@@
streams
absichten
civic
zö@@
verboten
trigger
stände
household
nee@@
ansonsten
schwamm
versagt
regenwald
6.000
schro@@
benötigte
lakota
genetik
übers
banken
tauch@@
responses
breit
bauch
experimenten
grösse
gige
chamber
beethoven
follows
ples
crows
fix@@
panik
positionen
bst
idiot
vorlesen
interpretieren
110
anderswo
ultra-@@
cassini
remarkably
suits
endsten
unt
kindness
halfway
gün@@
intent
süß
gehst
gletscher
folding
möchtest
900
fasst
aufstehen
folded
mikroskop@@
ints
structural
pier@@
90ern
historischen
ni
dringend
systematically
diskutiert
break@@
graus@@
amerikan@@
enkel
compromise
transportiert
ungewöhnliche
hob
mobility
conser@@
captain
mythos
ple
zoo
präzise
desktop
backyard
dynam@@
sop@@
auftritt
nes
litt
preparing
ignoriert
zuzuhören
medicines
zimmer@@
ks@@
assen
infi@@
erhe@@
controversial
wunderbares
blä@@
vorschlagen
friday
genomes
introver@@
m.
psychologist
predators
verwendeten
stered
ball-@@
inhi@@
dacht
demokra@@
mad@@
zunge
charaktere
agen@@
menschenrechte
versicherung
verteidigung
nitrogen
kleinste
würmer
prüfung
narratives
örtlichen
drops
verzerr@@
contributed
dj
si
doug
klaren
linse
sin
nungs@@
säugetiere
italien@@
angewandt
kletter@@
keller
kabel@@
verwen@@
admi@@
opo@@
taiwan
schritten
rande
gewohnt
assignment
pes
gleichungen
surfing
batteries
talen
en.
touri@@
verbesserungen
paste
gent
bali
förmige
tetes
gend@@
schneidet
dum@@
pin
dence
measurements
barack
organizing
venter
agnes
advoc@@
1973
kräften
springt
sou@@
lows
woraus
ops
siehst
umfrage
thermal
listened
monitoring
effektiver
pros@@
adjust
finanzi@@
nano-@@
una
printed
diplomacy
zutaten
sapiens
stabili@@
isierte
8-@@
verheiratet
beseitigen
weiß@@
mozart
trauma
steten
leise
restor@@
halten@@
continuous
trivial
historische
weigh
tausend@@
murray
luxury
gig
hand-@@
rauchen
schmerzhaft
gescho@@
gefühlt
rs
manipulate
sowjetunion
verbrei@@
gegner
ght-@@
jeans
bl
boundary
quadrat@@
hundert@@
distanz
anre@@
jugend@@
off-@@
versionen
liegende
zugriff
visualisierung
nepal
eineinhalb
steuer
posted
dian
deutschen
surgeries
calculations
öff@@
führe
strö@@
elu@@
schwellen@@
large-scale
interpret
amazed
filtern
stern@@
pert
forschern
organi@@
manual
erfolgreiche
bored
claims
loads
absurd
höhlen
therapien
detektor
schwanger
integri@@
kepler
lined
calculus
andy
kriminalität
vaccines
erre@@
mün@@
einstellungen
levi@@
1950s
duck
calm
pille
stabil
zealand
saubere
com
road@@
ströme
stimmte
lear@@
whoever
reserves
beam
cation
auszusehen
peoples
nungen
heritage
blowing
enemies
anna
samer
mathematischen
gan
joint
blood@@
legislation
verkehr@@
harmon@@
stürzen
overhead
heal@@
stationen
riechen
stischer
flossen
bedeutende
geistes
sinnvoll
außergewöhnlichen
chin
sacrifice
algen
rubber
distra@@
dankeschön
publish
positives
beantwortet
physisch
lauter
landscapes
hemisphere
2.
ökologie
statten
schaffung
butter@@
stimul@@
equations
verwand@@
rest@@
anreiz
jersey
olympischen
eliminate
wüsten@@
secretary
mushrooms
linux
elen
sprü@@
poison
pakistan@@
erwä@@
phenomenal
lasen
winner
biegen
essi@@
ause
kleinsten
habit
nutzte
weltraum@@
schatz
wedding
sul@@
rna
mammo@@
zwecke
gerte
maler
gien
orleans
sauber
integrieren
stolen
jederzeit
plä@@
prothese
dicke
fon@@
künstlichen
muster@@
lips
readers
obere
donor
beeindruck@@
benzin
sively
tar
interfaces
börse
galileo
automobil@@
ausprobiert
residents
exo@@
favorites
commodity
49
topics
mme
journalists
predi@@
zusammenfassen
visually
seemingly
robotern
bemühen
versetzt
absence
konser@@
toller
sn@@
mindset
pilze
begeisterung
existierte
24-@@
surveillance
ate@@
rsw
lions
sklaverei
alo@@
spezialisten
column
tinte
estimates
inci@@
fundament
wänden
lisa
schafe
stehlen
infra@@
aufhalten
flus@@
satelliten@@
drucker
fantasy
datenbank
auszuprobieren
nahr@@
schizophrenie
bacterial
karti@@
favelas
movember
bhutan
grundlagen
destroying
cians
spon@@
denkens
temporary
stücken
terte
lehnen
doha
ärer
gewal@@
vertrauens@@
reed
dumb
pig@@
getrieben
ligh@@
studierenden
müde
sprang
ppte
disability
konver@@
umfang
go-@@
experimenti@@
schwachen
anspruch
mentation
malte
information@@
prints
denker
berühr@@
arbeiter@@
ampu@@
entwicklungshilfe
margaret
kehren
corals
heading
leidet
habits
menten
stige
patch
iconic
exploit
lichere
kognitiven
struktur@@
exclu@@
stränge
posed
dirt
juli
deepest
sometime
great-@@
kenntnis
feeds
schot@@
bezirk
trennung
zeitspanne
flüge
weiterzu@@
freier
remix
mlich
öffentlicher
reformen
messungen
eingeschränkt
simulator
8.@@
zyklus
az@@
aktivi@@
strategic
kollege
umher
rul@@
dama@@
deser@@
artig
bugs
nutrition
freiwillig
oy@@
internet-@@
turen
tickets
teuren
kanäle
lohnt
beru@@
zeugen
fair@@
berater
million-@@
aufgestellt
catching
doubled
aqu@@
königreich
kyoto
excitement
mixing
ria
ish@@
horn
fence
muslimischen
promin@@
olympics
tech@@
schrift@@
litten
v-@@
cube
panbanisha
konstru@@
oftmals
vermuten
müsst
magnitude
jon
schwelle
likelihood
fir@@
ses@@
bürgern
sterblichkeit
texts
einfallen
approached
wahrhaftig
turm
jerry
consu@@
küsten@@
senator
40,000
pat
stored
yemen
perceived
breakthrough
hitler
peaceful
jahrelang
breiten
staates
binary
bern@@
shore
jegliche
gesture
intellektuellen
lock@@
tali@@
lit
obese
guilty
batterien
bills
vereinen
niedrigen
surgical
visu@@
tattoos
tour@@
stärksten
ation@@
angewendet
succeeded
nearest
ewig
ind
alkohol
items
anrufen
konstruiert
nin@@
schal@@
58
pop@@
steak
instru@@
übersetzung
unseen
horizon@@
candidate
raped
females
understands
classi@@
100-@@
aching
acre
tick@@
legi@@
mood
tv-@@
ston
5.@@
storms
deployed
adju@@
saul
proportional
comparing
symbio@@
frightening
manifestation
1960s
darfur
rettet
wrap
coun@@
dates
aesthetic
highlight
titanic
biomass
cheat
programmers
rough
authors
sweeney
scan@@
iranian
firing
hometown
lo
consumed
analo@@
mie
stairs
ere@@
copenhagen
imit@@
striking
erie
vege@@
py@@
poe@@
teller
comm@@
institution@@
demogra@@
abu
myth@@
cyrus
bury
drama
scaling
ences
amanda
substan@@
kit
labeled
rotate
ie-@@
prosperity
chines@@
computational
camp@@
multiply
condoms
solo
asian
transplantation
esti@@
odor
purple
eigh@@
nacht@@
teres
gigan@@
useless
gary
stätten
angiogenesis
avenue
aver@@
tuned
maria
ital
editor
dated
recommen@@
stays
shepherd
archive
loving
nap@@
damaged
coverage
erosion
=
steckte
rex
stres@@
territory
synthe@@
wid@@
tarian
schock
switched
gesünder
young@@
53
single-@@
kilo@@
ct@@
anne
mmer@@
carries
amsterdam
revealed
tuch
whe@@
graphs
panic
cooperative
intensi@@
aids-@@
klassifi@@
reifen
toiletten
geschaut
klang@@
vertreter
optimal
spontan
ea@@
schlü@@
engagieren
ück@@
kine@@
forschen
ong
prioritäten
angebracht
schweigen
rays
u-boot
demonstrieren
baue
hausaufgaben
titan@@
funds
liebling@@
molekular@@
schaffe
hülle
langzeit@@
feier
beobachtungen
&apos;clock
kehrt
fähigen
mod@@
festzustellen
pation
correc@@
tendieren
vergrößert
beeindruckende
wör@@
ücken
voran
verhandlungen
intact
kopiert
evolutions@@
wort@@
brennstoffe
freundschaft
globales
hunderttausende
schlacht
zulegen
ulen
erscheinung
schliessen
läden
erzähl@@
pei@@
resolve
kehrte
variations
genheit
erkannten
concerns
behand@@
anwesenheit
nährstoffe
sake
gestohlen
disagree
right-hand
rituals
reson@@
erstmals
frieden@@
leser
enjoyed
agreement
grei@@
anzufangen
szenario
taxes
cious
wahnsinnig
kanten
beeinflus@@
methan
vermu@@
beschrieb
hood
weitaus
klicken
sowieso
vs
analysiert
bungen
mäuse
aufweisen
discher
aim
tations@@
bauch@@
frequently
mühe
schriften
kluge
betrug
sische
quadratmeter
schief
ressource
schall@@
klick
vertreten
nebeneinander
manipulieren
kritiker
vögeln
gemeint
rieren
bewunder@@
ritu@@
betreffen
zahlt
veröffentlichten
wenigsten
ausgehend
systematisch
kommentare
üblicherweise
reaktor
flügel@@
bedingung
dents
scrip@@
vergewaltigt
sichere
colum@@
massiven
unbekannten
acquired
skype
umgewandelt
feinde
digte
landing
kontra@@
könntest
elektronischen
anhören
gerei@@
anwen@@
umfasst
vertei@@
erzählungen
fahre
betäu@@
berücksichtigt
alisten
bestimmtes
bücher@@
arians
komplizierter
komische
respektieren
yers
merkte
lion
sammelten
schlägen
freizeit
entkommen
geprägt
pan
adop@@
darpa
rory
dien@@
lifted
mode@@
herde
copies
mäd@@
92
ausbreiten
temperatures
meen
aum
u.k
rauschen
risky
juice
schrecken
erfüll@@
convey
linsen
entry
versteckten
kollab@@
ingenieuren
eva
krist@@
zubringen
nutzer
guitar
kings
gesundheitsversorgung
metric
beautifully
überein
up-@@
umgesetzt
simplest
stühle
beschaff@@
observations
devastating
patents
ladungen
profil
jam@@
stü@@
flexi@@
ktive
pain@@
unabhängigkeit
noti@@
steuerung
markieren
inevitably
wäsche
spinn@@
christ
würfel
assets
crea@@
shifts
nigeri@@
meals
demonstrated
rewards
encouraged
ultrasound
harmonie
orientiert
findings
ession
welfare
flagge
bian
bedroom
intel
crossed
betrachte
rolled
interaktionen
---
glücklichen
nonsense
mesh
agents
herausgestellt
dunkel@@
indonesia
mimi@@
sectors
exponentiell
weis
reaches
lap
oecd
zugrunde
mac@@
sorgfältig
maschin@@
chert
mahmoud
stoß
itäts@@
ansprechen
patri@@
veränderten
korean
edward
sichern
ablauf
variationen
pioni@@
cocktail
intellektuelle
ares
unmögliche
märz
liter@@
wishes
ministry
medication
skosten
ke-@@
übernommen
angewiesen
ierung
live-@@
yr
untereinander
korn
1976
advances
cares
dosen
filling
bausteine
depri@@
processor
miller
stics
kandi@@
accountability
nähr@@
analog
wr@@
77
friedens@@
blättern
bildes
twenty-@@
pis@@
themes
aristotle
pulse
degra@@
jum@@
broad@@
markiert
obdach@@
japanischen
criminals
argumente
kollektiven
hus@@
terrorist
fst
generator
verschwand
stit@@
oscar
yte
contemp@@
kreu@@
aufgezeichnet
immerhin
fundamentale
arity
sung
mäusen
astronomen
röhren
wacht
apples
öse
discrimin@@
schufen
geglaubt
konzer@@
pflanz@@
übliche
kate
bonus
transit
recommend
modi@@
anzeigen
87
zustände
vulkan@@
talents
failures
raums
platforms
humani@@
vereinfa@@
ric
kontrolli@@
reas@@
professors
continuously
arena
barriers
porno@@
gains
schil@@
blitz
craft
mimic
jäger
beurteilen
cd
slogan
murder
vegas
yo
cola
leopard
neigung
covers
6-@@
amazingly
locally
dancers
dity
metast@@
wore
mahlzeiten
dog@@
nel@@
hack@@
oes
füllt
venus
supermarket
ziger
concentration
absichtlich
hetero@@
master@@
stun@@
basketball
bö@@
biom@@
platzieren
determines
potter
zimbabwe
lor@@
massi@@
klin@@
kommentar
begriffe
revol@@
interconnected
gedul@@
copied
ände
nicole
curi@@
herzlichen
25,000
artenvielfalt
isch-@@
dinosauri@@
spinnen
universes
smells
cis@@
lifespan
ells
stätte
able@@
tägliche
who@@
foxo
zusammengefasst
kunststoff
immunsystem
57
hostile
chinesisch
taxi
reader
überzeugungen
1986
durchschnittlichen
ve-@@
plot@@
gie
gruppen@@
ingen
verpflichtet
rem
displays
gespräch@@
networking
prop@@
me-@@
embarrassing
stisches
cables
practicing
8,000
schizophrenia
terrified
gespannt
füll@@
rich@@
konflikten
anas
diplomatie
privileged
eingesch@@
graduated
inieren
bauern@@
tool@@
kostenlose
keepers
pricing
kali@@
lebensunterhalt
kak@@
tänzer
natalie
satellites
verhaltens
nebel
2,5
richtlinien
äng@@
imagin@@
merkwürdig
woo@@
worin
matched
tei@@
ring@@
rethink
gespeichert
inhal@@
jahrhunderte
eten
staring
num@@
acids
hals
illa
flei@@
transmit
jugendliche
chse
ipods
pa
allein@@
canvas
stapel
galerie
trading
riding
30s
heimatstadt
earth@@
lhc
brut@@
baten
stär@@
erstaunliches
periods
isoliert
enten@@
qualifi@@
humanitarian
self-interest
autonomy
dritt@@
manner
witnessed
clinics
marin@@
ala
staub@@
keinerlei
low-cost
angeschlossen
trapped
krü@@
significance
dent@@
gela@@
feuern
54
200@@
behinderung
fördert
synthesis
studierte
holocaust
kant
identisch
atlantik
whoa
pouring
konkurrenz
echo@@
regal
regional
asth@@
ppy
digungen
stic@@
wissen@@
landkarte
jedermann
rechner@@
gegenwärtigen
youngest
deadly
extremen
160
separ@@
studierende
llt
sonn@@
kleben
internation@@
custom@@
documented
errichtet
erschaffung
pulls
phi@@
synchroni@@
spinning
kle
daraufhin
poll@@
solches
philosoph
imm@@
diarrhea
durchschnitts@@
eleanor
res
figu@@
repar@@
tödliche
1983
far-@@
door@@
ausland
erinn@@
berat@@
school@@
aufwuchs
flam@@
intui@@
wunden
mosquitos
shel@@
vorkommt
genossen
effiziente
erwischt
ozeanen
thesis
instin@@
wurzel@@
amerikanischer
uc@@
meinten
blich
schnellsten
angri@@
abundant
appeti@@
zip
risd
tie@@
dou@@
entwickler
äch@@
sha
destination
holders
sony
cattle
melodie
request
konsu@@
hybrid
spaghetti
pharmaceutical
drin@@
overwhelming
strang
mitgliedern
wonach
teurer
militärische
installed
storyteller
cocaine
optical
introduction
survived
tales
dunkler
einfachste
rabbi
decision-making
verzwei@@
verhalten@@
zeitschrift
kels
cooler
sendungen
herstell@@
strahlt
shr@@
ingredient
augu@@
endgül@@
schaft@@
bemerkenswer@@
christen
empower
algebra
irration@@
unic@@
e.@@
realization
aussagen
getreide
überfluss
brauch@@
aßen
hob@@
plattformen
ual
collectively
dauernd
emplo@@
flavor
mask
größtenteils
stal@@
constitu@@
anschließend
stically
deb@@
ursachen
vorhersage
juden
ungskraft
fielen
gues
innenstadt
grove
aged
cage
separation
ara
side@@
potenzi@@
verbal
völker
galois
dex
glaubens@@
jargon
overwhelmed
koennen
tum
treffe
hungrig
blas@@
justi@@
künstlich
anes@@
vac@@
fledermäuse
seri@@
gling
olympic
spunkte
starkes
schwi@@
ji
non-zero-sum
intended
eurem
übersehen
geschaltet
gau@@
aristoteles
pentagon
software-@@
wachsen@@
paradigma
blindness
ket
strations
herumzu@@
kus@@
wärmer
hallucinations
slower
exten@@
pepsi
double-@@
lanes
unendliche
magician
steigerung
attracted
scheiße
acquire
cent@@
einbringen
imitation
mäß@@
laun@@
approximately
zap@@
gemü@@
durchaus
40.000
shy
zylinder
activated
spinne
femini@@
fotografen
spell
momentum
ausgestattet
bedeuts@@
coordination
shops
proved
geren
süd-@@
tra
outsour@@
recur@@
tagged
mega@@
shorter
iler
sequences
kommst
abhängi@@
icons
occupy
bikes
rohstoffe
merk@@
bä@@
starren
lum@@
parameter
freun@@
gesten
reproduce
depos@@
pf
functioning
brech@@
yeast
autobahn
distinction
broader
viewer
bund@@
numer@@
richtete
fores@@
seawater
fund@@
gezeichnet
oll
pays
apfel
ly-@@
tennessee
wählt
kühlen
ature
ron@@
mankind
hühnchen
diego
hopeful
durchzu@@
seltsamen
coding
expanded
sadly
frames
intro@@
dynamisch
nutze
drei-@@
schnittstelle
langfristige
schalt@@
höhen
stunt
eintreten
generates
wilde
nevertheless
graphie
stands@@
pads
pets
episode
wolf
dend
gebrauchen
lay@@
anth@@
millennium
philosophical
cky
theoretisch
behalf
famili@@
beweg@@
formul@@
predator
zusammenkommen
crop
profitable
türen
tansania
grams
wohnzimmer
direkte
60er
tropical
shing
appreciation
logi@@
rufe
tedster
halle
twin
gesunken
ling@@
workplace
realisieren
präsen@@
vegetable
item
phänomen@@
lap@@
schiffe
bien
höchst@@
enor@@
hex@@
install
paras@@
tooth
aling
barbar@@
priority
specialized
addiction
loan
avatar
rezession
erup@@
einzelnes
zertifi@@
blah
seventh
hoo@@
wiederhol@@
bic
kondome
disgust
affen@@
84
port@@
fired
greifend
equals
kh
alltäglichen
cds
pump@@
textbooks
wiegen
suggestion
rosa
prob@@
verschaffen
wood@@
ökologischen
vermei@@
tious
vary
dom
beef
conductor
diagnosis
jüngere
farther
physicians
periode
nissen
chemist
füttern
üblichen
mans
longevity
geru@@
1982
vereint
aktivisten
geschla@@
assembly
stomach
mutationen
orders
glamourös
metals
französische
sungs@@
ärm@@
ueber
schni@@
improvis@@
verla@@
trainer
managers
becher
fron@@
kauften
beinhalten
phen@@
detector
83
erdoberfläche
expressed
eu
pond
abandoned
acumen
eled
taus@@
demü@@
philosophers
wertvolle
niedriger
walter
frosch
hertz
stine
opinions
rd
zähl@@
phosphor
salz
0s
übertrag@@
begehen
herkommen
verfü@@
enge
stich@@
safely
locks
produzenten
unconscious
algae
sorte
angiogenese
dazu@@
mission@@
metaphor@@
hierarchy
zeug@@
stimmung
ät
zusammenbruch
trum@@
oregon
anom@@
accelerate
affe
identifiziert
1975
mend
peripher@@
gehirnen
sent@@
buddhi@@
60,000
repräsent@@
künstler@@
vali@@
u-@@
laughter
schne@@
caps
physikalische
projektes
accelerating
regimes
umsonst
mächtigen
blew
stigma
salz@@
ausdrucks@@
selec@@
klatschen
gramme
hunter
mani@@
beds
zurecht
fever
bud@@
tts
durchgehen
6.@@
triangle
stoffwechsel
tigem
accomplished
fuss
philippe
lud
einschränkungen
ösen
dünne
schaltkreise
indonesien
roofs
flickr
ared
lectures
sco@@
schwar@@
partei@@
200.000
famine
jahres@@
gedichte
vations
melden
mycelium
celebrity
angelegenheiten
judgments
corresponds
gänger
grundschule
beunruhigt
empfangen
reflected
frogs
besuche
verknüpf@@
außerordentlich
anbauen
expan@@
ologi@@
vollständige
prisoner
refugee
ity-@@
wis@@
trinkwasser
ush
ement
aimee
häss@@
archimedes
membran@@
flüsse
klänge
ion
bp
ausgeht
besit@@
beat@@
exi@@
baum@@
entspan@@
dien
acu@@
ini
viewing
anesthesia
verkauften
sim@@
workforce
astronomy
chem
politikern
bestandteile
ght
entwur@@
activ@@
desperately
phänomene
obsession
beispiel@@
selbstmord
celebrated
poni@@
schwimm@@
organische
triumph
sculptures
geringsten
spor@@
lustige
tight
democra@@
dawkins
sergio
nähern
stört
populationen
gb
tains
table@@
hervorbringen
agrar@@
ähnlicher
liebten
offensichtliche
wohlhab@@
chasing
weiterentwickelt
weiser
rasse
elektr@@
herbei@@
inno@@
visuell
deut@@
hopes
erfüllung
crimes
furchtbar
manage@@
one@@
psyche
simulieren
scher@@
treibhausgase
fantastisches
nordpol
stopp@@
dringt
sick@@
descen@@
intimacy
beschädigt
eisen
bese@@
tank@@
mitchell
talente
archiv
astronom@@
onia
legiti@@
glühbirne
cnn
enzyme
ope
archae@@
pigeon
alfred
geradezu
biomasse
gehry
barbara
erden
stopping
tants
paar@@
vibra@@
transpor@@
iceland
pfer
entschuldigen
zivil@@
ac
buchstab@@
verstärkt
ereig@@
nicholas
livestock
jüngeren
spir@@
warst
überdenken
repeated
,000-@@
eingenommen
infinity
cro
plasti@@
kolli@@
verwund@@
alternatives
sole
beschaffen
stanley
sends
collider
ape@@
lkw
prototyp
dg
kohlen@@
möbel
screening
beraten
studi@@
touching
hacking
stunning
illi@@
bos@@
angezogen
glori@@
chronic
vy
gasoline
dome
ikon@@
owners
weiblichen
viert
schirm
größen
verhaltensweisen
minder@@
konferenzen
ds@@
ont@@
rede@@
hyp@@
pipes
cooling
beaten
marked
upside
va-@@
colorado
schar@@
primate
molekülen
durften
mia
traces
disap@@
hard-@@
jennifer
loose
unheimlich
ermutigt
punishment
nm
aufhört
friendship
cart
tzer
tedly
adul@@
romantische
roger
ärger
oops
künste
psychische
direc@@
bull@@
blickt
paradig@@
intimate
angeblich
fleck
lity
universen
symmetries
toilets
recycl@@
copper
gour@@
frustriert
mitgefühls
urs
rotten
anfühlt
kürz@@
radar
fbi
worm
abundance
voraussetzungen
seals
geschätzt
pour
paran@@
ght@@
color@@
activists
ocean@@
haf@@
tismus
beherrschen
vorgehensweise
ramp@@
orph@@
äne
teig
este
schweizer
boots
verfügt
schuhen
partnerschaft
mother@@
invasi@@
beobachtete
switzerland
krat@@
them@@
singapore
intra@@
sizes
lexi@@
incident
trock@@
ator@@
interessierte
guards
kühlt
belly
travels
ängen
1957
olog@@
prey
beck
rier
cleaning
night@@
kambodscha
arznei@@
einzelner
soap
woll@@
supreme
jury
erle@@
verlässt
lische
biot@@
behold
grey
ey@@
ausgelöst
rente
mutig
biologe
implant
schritt@@
chapters
pest
thrilled
shining
consuming
gewaltig
amm@@
setz@@
ellem
feuerwehr@@
somalia
symptom
flö@@
georgia
roosevelt
beliebigen
gewidmet
überqu@@
dow@@
umwandeln
gewöhn@@
kets
kosmos
neanderthals
towns
pumpe
wohingegen
sma@@
fange
äußeren
prozentsatz
republicans
fün@@
preparation
ankam
estate
kategorie
wahrheiten
pam@@
entschloss
frustri@@
tumore
hef@@
chemotherapie
rang
nano
twist
bestätigt
vinci
technologi@@
riesig
tul@@
pray
recall
reasoning
recycled
komplizierten
catholic
versuchs@@
poles
geograph@@
mutations
utop@@
bezogen
grains
barefoot
ratte
tän@@
boun@@
convicted
fischer@@
leucht@@
corners
lings
intuitiv
luke
liebes@@
revolutions
paare
anten@@
tedx
teilzunehmen
½
kritischen
fi
pol
christopher
verwirr@@
gesicht@@
visiting
lan
verletzen
lautsprecher
größ@@
hosen
einbeziehen
compute
foto@@
defend
74
composition
verarbeitet
call@@
17th
spass
pilz
beschäftigung
mut@@
economically
secular
zy
amphi@@
folien
schnitte
konsequenz
projection
wissenschaftlerin
milky
entscheidet
frequencies
tling
sensor@@
higgs-@@
koloni@@
gled
zeuge
stockholm
dare
spri@@
terrific
suey
obe@@
gos
krater
provin@@
warmer
routine
acc@@
polizist
noah
hypo@@
tedsters
arkansas
democrats
angriffe
adopt
feuert
extremi@@
triebenen
zar@@
resour@@
hindern
gemerkt
82
²
56
urteil
erschienen
desperate
sound@@
geleistet
argumentieren
empath@@
jog@@
grow@@
architektonische
hormones
progression
kammer
klappen
schlicht
schaltet
bonobos
perio@@
cups
70@@
aa
eyed
receiving
canadian
element@@
russell
festen
unfortunate
paradox@@
sommer@@
flecken
mitmachen
prince
sichts@@
helix
einzugehen
sketch
prototypes
verblüffende
mochten
ernte
pencil
zurufen
eck@@
ryan
notation
hingegen
ologically
constraints
reihen
pfeifen
sobule
geträn@@
feind@@
setzung
comments
ola
begeben
portland
flugzeugen
circum@@
auth@@
rem@@
partikel
verwendete
naive
promises
gebühren
recru@@
bra
nachhal@@
ehren@@
fai@@
advan@@
konversation
pessimi@@
wasserstoff@@
spürt
traurige
lesters
trö@@
sexually
tta
äres
be-@@
awkward
algorith@@
pfle@@
erwachsen
temperaturen
ologisch
schale
candidates
statistical
einfach@@
inventions
brennen
ison
spac@@
khmer
zeichneten
filmmaker
probiert
lampen
palette
valent@@
utterly
diamond
lizen@@
unterschiedlicher
webseiten
ceremony
glie@@
expres@@
führende
premise
kalku@@
trusted
recognizing
exam
stattfand
verlaufen
octopus
fähige
contributing
pois@@
ausbruch
schwierigsten
gegenwärtige
ographie
ausnahmen
enormously
turing
einsicht
puzz@@
1985
plato
gler
untersuchten
copying
planned
gü@@
gon
imitieren
bother
d.h.
cha
melan@@
bangladesch
rückgang
gläu@@
randomly
kriegs
toren
b.@@
cand@@
lasting
säure
parachute
1949
genie@@
wet
spart
wrapped
schwach
tty
parenting
niedrige
handel@@
captcha
observed
antreibt
formal
assumed
junges
disciplines
dampf@@
rebel@@
planet@@
weighs
ideale
peer
greg
idealen
embracing
anthropo@@
pots
fiktion
berücksichtigen
schätzt
bathroom
nachher
häl@@
schnitten
vering
mikro-@@
englisch@@
abkommen
chst
hauptstadt
zw@@
harten
)
trips
häup@@
bearbeiten
frontier
playful
girlfriend
neurowissenschaft
1,500
fasste
visualize
kün@@
carter
überlegt
tatsachen
broccoli
cially
arden
fluss@@
gärten
orium
ony@@
moo@@
wet@@
schätzungen
verringert
produkt@@
schlau@@
wählten
squir@@
dauer@@
gardens
gewissem
expen@@
sigkeit
zonen
sungen
wald@@
ubuntu
graphen
kommuni@@
meme@@
ferne
mola
exotic
queens
zielt
documentary
mona@@
bedeutsam
haken
oney
friedman
herd
talenti@@
jüngste
accuracy
guard
lebanon
ally-@@
rg
erstmal
supercomputer
heimat@@
kriminelle
singapur
entwickel@@
sammelte
einladen
atmosp@@
enterprise
polari@@
web-@@
weitergegeben
firms
isation
essex
46
bacterium
12,000
bruchteil
proto@@
athle@@
fürchten
symmetrical
zeitschriften
enttäuscht
annähernd
programmed
mörder
glorious
penny
implemented
gere
mien
botschaften
enhan@@
hiermit
flächen@@
wurzel
führer@@
quarters
romo
ulating
predic@@
gestoßen
eats
oppres@@
dramati@@
wies
lebenszeit
tigten
entscheidenden
dekor@@
rin@@
mirrors
ffer@@
chs@@
hohem
implement
vorbereitung
tötete
age-@@
erzeu@@
150,000
thunfisch
ausgezeichnet
belongs
benennen
auswei@@
aug@@
producers
stert
tempel
jagd
unternehmens@@
digging
chtigen
designen
kaffee@@
zuständig
evange@@
akzep@@
erwartete
hausti@@
leo
depressionen
schaltkreis
meg@@
sierten
schönsten
caves
turbul@@
phasen
applaus
rump@@
gitter
apparat
rapi@@
geist@@
gies
repor@@
entnehmen
credi@@
roo@@
stated
indu@@
unabhängi@@
catastrophic
bj
genu@@
hudson
iter@@
asym@@
simulate
consider@@
rockets
nder
gelten
brauch
gelandet
entsprechen
acceptance
röhre
sauber@@
stürzt
einladung
schweiz
heavily
übrigen
dale
satisfaction
tastatur
tell@@
filmemacher
anatomy
infektion
spiders
calculated
poems
sieg
freud
shoe
draht@@
behinderungen
slope
prayer
blumen@@
kollaps
herausfand
tted
talented
critic
een
hofft
teena@@
schmeckt
küchen@@
bevorzu@@
jews
schickt
guru
stiges
rasch
gestures
schlimme
shat@@
vornehmen
devoted
asen
mens
tters
gießen
materielle
südlich
bergsteiger
irs
erender
peinlich
wound
jonas
pit
götter
mön@@
robotik
optionen
herausfanden
afghan
unle@@
scheu@@
stranger
gesang
diagramme
accoun@@
therapies
slice
trou@@
cambodia
meeresspiegel
priorities
mobilität
ri
christians
tee@@
kraftwerk
towers
alla@@
activate
pfi@@
chemotherapy
ös
adresse
ansah
lande
vergleichbar
tippen
sperr@@
dokumente
impli@@
scrat@@
ttet
beamten
männer@@
buddhist
leichten
essive
drang
organisierten
microscopic
politically
zero-@@
beetle
mister
h.
gewissheit
disappears
anatomie
rape
u.@@
lamp
bucht
netten
trauri@@
panzer
exceptions
wirtschaftlicher
ausgangs@@
ungs
shoulders
schreiten
speku@@
unterschied@@
luci@@
correlation
promising
konserva@@
rehear@@
modellen
längere
cular
ings@@
günstig
essenz
zweig
verschlei@@
counter
dod@@
sammler
oi@@
solle
fatal
imperative
streichen
cheating
anfan@@
alike
herauskommen
kämpfe
ust
counter-@@
nadeln
polen
tangible
abe
teilungen
ar-@@
erfolgs@@
fän@@
engagi@@
cello
hadron
5000
spiral
reporting
1.5
irgendeinen
snake
interventions
lithium
greenland
missbrauch
conduct
marke@@
disasters
delivering
älterwerden
schließe
nasty
threatening
essens@@
erweiterung
bälle
embar@@
ulated
urlaub
cence
occasion
ähnelt
reflex
nü@@
geladen
sün@@
irr@@
frage@@
pearl
gungen
zern
squares
anzupassen
bewerkstelligen
tude
freak
verblüff@@
bezo@@
sequenzen
r.
bereitschaft
3.
medikam@@
compe@@
näher@@
nö@@
tender
palästinen@@
charter
erweiter@@
and-a-half
betrügen
forgive
fäch@@
parlament
mitzu@@
leop@@
isaac
hasse
vent
dow
orienti@@
frühstück
kurven
standort
ermöglichte
jud@@
burger
historisch
depic@@
priv@@
concentrate
barmherzigkeit
sation
angen
unterstütz@@
platziert
rage
attacked
under-@@
versichern
skate@@
bevorzugen
kiss
piles
brennstoff
pity
festivals
counts
horri@@
phe@@
mind-@@
70er
wiesen
ehen
haftes
preventing
associate
tätig
maxi@@
gebir@@
glühbirnen
entdeck@@
rap
karto@@
nervensystem
protocell
molekulare
petr@@
ians
flugzeug@@
fahrrad@@
exploded
1918
klassen
libr@@
hinterher
adaptation
bestä@@
93
unity
johan@@
emi@@
ufer
befolgen
wives
lonely
fulness
powder
impuls
robu@@
meln
ya@@
verfassung
hüfte
stande
minerals
vorzubereiten
ultraviolet
wissenschaftlicher
persönliches
ansteck@@
kund@@
geschö@@
yard
snow@@
negle@@
40-@@
gemeinnützige
aha
tax@@
erwi@@
bestätigen
sta
erdgas
praying
toyota
irrelevant
aston@@
virtu@@
1978
fitness
mmed
trinkt
tweet
miami
gebilde
itali@@
informiert
nollywood
schall
messy
gefangenen
nights
verwende
colli@@
kampf@@
establish
cloth
kleider
iden
riverside
sichtbaren
betrag
cum@@
tions-@@
gattung
braun
composed
bureau@@
ype
nieren
korb
kritik
belei@@
burns
visionen
sequ@@
hnte
agile
beschul@@
zwang
kon
prie@@
malcolm
erfolge
melo@@
betrachteten
melting
pathways
magnet@@
lanka
manns
lifes@@
enthüll@@
transistor
jähriges
dley
doses
witze
stlich
meeren
zuhörer
franklin
nebenwirkungen
govern
resses
breitet
aluminum
allmählich
tourist
verteidigungs@@
motivate
goldenen
pix@@
sinni@@
assistance
angles
parkplatz
unterir@@
zwie@@
artifacts
add@@
zit
krebszellen
gemalt
browne
repe@@
passions
zigern
shield
chemiker
innovate
befür@@
turn@@
lädt
älteste
fris@@
fokussiert
carto@@
revenues
gehei@@
indicate
ane@@
stehenden
sergey
überflu@@
teilnahme
ethics
nucleus
ückt
cracks
techn@@
mischer
spür@@
injured
stattgefunden
cope
6.
bell@@
gelungen
sally
privatsphäre
tioning
voyager
patente
pfad
maintenance
passend
hig@@
ohr@@
chao@@
sorg@@
körperlichen
oping
dauerhaft
gelo@@
krümm@@
argues
basis@@
konto
ultraschall
danny
unterstü@@
läufer
huhn
consensus
forcing
sequencing
aorta
allies
feuchtigkeit
redeten
teilhaben
wäldern
zwischenzeit
quo
netherlands
presidential
indigenous
ernste
patenti@@
thunfische
gover@@
nachbar@@
god@@
erwecken
democracies
schlangen
cephal@@
revi@@
areale
humility
fili@@
bedrohungen
debris
leder
multination@@
nonetheless
charakter@@
gebie@@
malari@@
bedient
mathemati@@
pillen
73
absol@@
secu@@
führungen
jacqueline
addressing
fischerei
koralle
mahlzeit
gerä@@
type@@
gepar@@
eb@@
garten@@
wick
ultra@@
bahamas
entrepreneurship
convention
bilder@@
eternal
briten
angemessen
weizen
käse
pflicht
vie@@
reno@@
astronomers
1992
embarrassed
needles
dir@@
chel
beacht@@
18th
accompanied
seg@@
embryo
taucher
jumping
assozi@@
terminal
aled
bai@@
touches
cot@@
billy
rom
krokodi@@
chten@@
reu@@
translator
syndrom
fahrten
entschei@@
texture
clues
gewinnung
ologien
juvenile
netzwerks
starteten
ordered
therapeu@@
umbringen
multinational
equity
left-hand
dbar
receptor
wahrgenommen
man-@@
lücken
stigt
79
planted
ästhetik
winde
dubai
gic
hefe
mammal
illusions
honored
glücks
dumme
rows
1987
tuesday
üsse
dreidimensionalen
produktiv
verschmelzen
zweit@@
liberty
brave
übersetz@@
62
time-@@
investigation
zügen
unerwartete
knac@@
arbeitern
jordan
bilanz
benutzer
bürgerkrieg
gliche
verwü@@
molekularen
friction
mented
auszugeben
isierten
austin
sweat
zerstör@@
processed
rücken@@
surviving
sicherheit@@
happily
reduktion
kauf
bal
eil
nevada
beruhi@@
dunkeln
tans
existierenden
ow@@
empfänger
neuseeland
abschließend
emotionally
anatom@@
zellul@@
well-known
log
wolle
monit@@
oriented
answering
mali@@
margin@@
airline
fried
scannen
fremd@@
stoß@@
verrichten
schad@@
rolls
manifest
basking
wiederaufbau
absoluten
patientin
pioneer
esi@@
lehrplan
mun@@
homo@@
cathedral
dynamische
relatives
rannte
league
statt@@
gesellschaft@@
wom@@
differen@@
yan@@
verpflichtung
primates
beton@@
loy@@
schri@@
39
erlebte
hten
telefone
loo@@
pli@@
phili@@
verhe@@
spunkt
eltern@@
nity
langfristig
zurückzukehren
fifty
pern
erklärungen
contained
titles
standes
shifted
wins
mixture
interne@@
condi@@
accum@@
countless
bbc
fault
wirksam
jazeera
targeted
strikes
lierte
meets
krankenhaus@@
gegensei@@
bün@@
pleased
femin@@
criteria
interak@@
libellen
start@@
counted
besorg@@
gesprächen
demonstriert
auditorium
dodo
komponi@@
junior
rund@@
lähmung
iniert
achieving
helden@@
musikalische
sensible
sionen
perspektiven
ino
wähl@@
gefährdet
fundraising
verwirrt
serves
linking
getreten
anerkennen
operated
rituale
reck@@
mono@@
sufficient
shelves
praktischen
mexican
trauen
tus
paths
schliesslich
eingebau@@
letzt
transformieren
zyklen
geo-@@
t-shirt
milch@@
lehrte
stare
verur@@
alem
ever@@
kompromis@@
baumwolle
journalism
seltener
demos
laut@@
aufgehört
meeresboden
befanden
schreitet
liebe@@
cream
archä@@
1962
entscheidungs@@
verges@@
th-century
metabolism
meerwasser
null@@
wirtschaften
osama
collision
hindernis
paro@@
spectro@@
cerebral
unabhängigen
spatial
aura
nancy
elaborate
ökonom
acres
comple@@
ct-@@
authenticity
verknüpfen
solly
ironie
vogelgrippe
körperlich
erbar
frightened
dlichkeit
weihnachts@@
geres
schwein
brutal
picasso
1930s
inspirierend
representative
ök@@
volumen
zahlreiche
instruction
orn
ctable
hman
clusters
eh
unend@@
persönlicher
ansätze
observing
sklaven
dsch@@
kopier@@
kämpft
öhn@@
lebenser@@
sprich@@
nachhaltigen
zi
variables
dishes
rejected
südpol
cruel
massa@@
eames
derselbe
atheisten
nervenzelle
oxy@@
takt
vielver@@
ost@@
touch@@
atomen
astronomie
chop@@
ablen@@
geschichtenerzähl@@
atr@@
tradition@@
hung@@
equilibrium
verträge
kopenhagen
engl@@
skelet@@
ucla
kis
singer
maschinen@@
partnern
brick
tiefsten
gedeihen
sands
politician
generiert
ethic
sticking
amateur
improvements
vollem
chromosomes
delay
brands
describing
dreidimensionale
hoffnungen
ambitious
sensitivity
wahn@@
milit@@
gefilmt
habit@@
journalismus
asset
columns
energies@@
vocabulary
ambition
semi-@@
monum@@
todes
membrane
religi@@
versteckte
41
bedecken
access@@
pho@@
temper@@
dopamin
hungen
zurecht@@
disziplinen
männlichen
3000
neo@@
kocht
wiring
shipping
marcus
anfangs
üs@@
assuming
kreuzen
ernsthafte
mature
ee@@
hospit@@
nine-@@
pur
tape@@
legitimate
grafik@@
deserves
abstrakte
karl
fessel@@
critically
extra-@@
prototyping
dergleichen
aggre@@
textbook
ishing
leap@@
elektron@@
pathetic
außerord@@
geborenen
shred@@
durchfall
researching
goat
atives
endeffekt
beruht
ranging
plo@@
dokumentieren
kopien
erzieh@@
reservat
washed
richest
kris@@
zeitig
ues
theore@@
streng@@
sexuell
evalu@@
meter-@@
verbringt
beats
demselben
generosity
moskitos
sever@@
organisierte
genauigkeit
schub@@
borrow
inform
piloten
ku
patienten@@
folter
common@@
landung
cern
bieren
diät
invasion
rift
hervorrufen
absorb
grabbed
stuhl@@
rebecca
zufälligen
lichung
ständigen
kör@@
waschmaschine
90er
simpli@@
thinkers
machinery
umgebracht
palestinian
älterer
18-@@
graph@@
taylor
mikrobi@@
psychischen
80-@@
seither
involve
tomato
langley
anniversary
liehen
abgeben
expo
rome
charis@@
aka
laughed
behandlungs@@
wac@@
verti@@
illumin@@
ungar@@
herab@@
pfe
beute
vaginas
climbed
gö@@
erneuerbaren
coastal
solarzellen
heroic
resilient
immer@@
kamel
anthony
bent
convincing
households
peculiar
boeing
bittet
nau@@
gemein
ris
riss
spritzen
material@@
-syndrom
calculation
pine
verhaftet
kende
rel
zusätzlichen
arri@@
converted
pipe
schwache
prostitution
irony
self-assembly
verlän@@
deutsche
stöck@@
zukünf@@
surveys
verkäufer
einkaufen
potatoes
stillstand
spring@@
riff
grafiken
integrity
normaler
dab@@
impul@@
metr@@
ju
genomics
dring@@
coch@@
indicates
deri@@
distribu@@
privilegi@@
weichen
tai@@
womöglich
aufzugeben
eur
atro@@
variante
greatly
verschiebung
haz@@
meinungs@@
summarize
placebo
kidna@@
1974
89
veteranen
ferti@@
großzü@@
chimpanzee
etten
stellungen
transforma@@
diamonds
tup
befreit
anstrengungen
entwarf
perceptions
bribe
detailli@@
rus
gemeinsames
tary
katastrophen@@
artwork
verhältnisse
congestion
berech@@
intelligenter
compu@@
stem@@
drunk
vernachlässi@@
condu@@
marktes
partnerships
uhr@@
überwachung
crashes
verwunder@@
charts
riefen
metropolitan
krä@@
kreativer
legung
großarti@@
übungen
respekt@@
logarith@@
hervorragend
tricky
verfügbaren
aufruf
jä@@
leber@@
technolog@@
unternehmens
priester
instinktiv
demen@@
orthodo@@
fahrt@@
psychologische
zusammengestellt
prescription
sprä@@
container
deforestation
konsum@@
outbreak
imagining
eff@@
verstärken
sucks
awa@@
jama@@
ancestor
pädago@@
ves@@
rauf
crude
vel
gewässer
-based
wrist
spontaneous
rey
stehende
exercis@@
coma
divergence
psychopath
humane
7,000
rhino@@
ards
stest
gerten
designern
entlich
schultern
condom
keit
ankün@@
psychiatric
daf-2
botswana
starker
pumps
lateinamerika
anzubieten
singt
lungen@@
instinct
krankenschwestern
wasted
freitag
weckt
orized
noble
dichten
discussing
uniquely
peer-@@
paralysis
rechnet
scientifically
confronted
eduardo
glacier
antreiben
besonder@@
geräusch@@
benutzer@@
begegnung
ruder
einbauen
pflegen
tennis
1967
hren@@
reproduction
temperatur@@
lately
pedal
hierarchie
duty
apes
rains
thousand@@
operates
bandwidth
shaking
skop@@
gefügt
ater@@
detected
sean
verschwanden
analyzed
janine
saturday
regularly
beiseite
chefs
zk
besaß
incre@@
pluri@@
ereien
college-@@
versa@@
übergehen
bast@@
geschicht@@
napp@@
infant
overnight
apartheid
tm
wachen
übernimmt
café
cardboard
domini@@
fig@@
1969
logy
draws
belohnt
ernährungs@@
ausbreitung
anstrengung
ausgestellt
geschäftsmodell
analyzing
considering
rückkehr
vollstän@@
mentale
ernährt
ever-@@
daddy
hender
eigentü@@
hoped
herausforder@@
labels
flesh
magazines
cosmos
hafter
betroffenen
vermie@@
jumps
grau
globus
asleep
stand-up
crap
alling
präsenz
diversität
dreieinhalb
wun@@
colorful
rockefeller
lebensstil
ishes
dennis
beweist
concer@@
artiges
wortwörtlich
ed-@@
himmels
authoritarian
merkwür@@
intentions
requ@@
zu-@@
dnungen
systematic
perfektion@@
lawrence
versich@@
zucht
klat@@
awe
vermächtnis
prevalence
sprung@@
acknowledge
bust
deep-@@
genoms
baseline
vergeben
trennt
möglichst
glüh@@
coll@@
segel@@
pathway
transmit@@
cide
aph@@
gif@@
anpassungs@@
ähn@@
tanzt
bler
1988
surround
gently
filmed
drücke
gehör@@
graffiti
politi@@
tteln
superstar
publicly
harris
ansammlung
matthew
pagne
checklist
einzufangen
zugehörigkeit
ethnische
spezifisch
gebor@@
informieren
brunnen
tauchte
lokal@@
second-@@
400,000
yan
qualit@@
slu@@
genommen@@
probanden
accepting
proce@@
headquarters
child@@
impfstoffe
combat
ausrottung
kogni@@
famously
visueller
blessed
buttons
chu
dünn
regrets
nötige
fin
anderthalb
fie
magen
psychiater
flor@@
replacement
korrek@@
ceos
paket
chromosomen
resist
allt
üblich
kür@@
heck
ganzer
berechti@@
historiker
schmelzen
geschrie@@
seth
convenient
truppe
flights
house@@
wissenschaft@@
savan@@
euren
lower@@
billige
gelan@@
calcium
chimps
umsetzung
hairs
reflektieren
mobiltelefone
grösser
e-
modus
mals
kungen
regulieren
balanced
charakteri@@
jungfrau
ment-@@
respected
verantwor@@
projected
unsicht@@
kultivi@@
erne
gesichtern
infectious
körner
ineinander
eingebettet
aria
interfer@@
dächer
aussuchen
altered
digten
gröss@@
ames
wilden
frequenzen
breath@@
feder
kable
ex
eden
cataly@@
attacking
essenti@@
o.k.
leidenschaft@@
gedauert
evolutionäre
kidding
acou@@
unangenehm
enger
techni@@
bluefin
profit@@
select
helmet
asteroids
decent
spitz@@
überblick
conne@@
viable
rations
js
aß
inspi@@
dok@@
vakuum
professionelle
benki
kreatur
year@@
verbesser@@
fails
thor@@
dsten
hiroshima
doc
demokrati@@
bewahrt
mao
verpassen
mind-wandering
subtra@@
japan@@
broadmoor
bearbeitet
angenehm
symmetrien
gebung
gun@@
wiederherzustellen
vernetzung
saint
anlegen
beher@@
leuchtet
jagt
deny
gesto@@
asing
eman@@
exponentially
beliebige
d.@@
responded
lighter
installieren
ddt
regulation
penalty
filters
veterans
saft
pair@@
commission
facili@@
wahnsinn
metri@@
modern@@
i.
lichkeits@@
susie
momenten
declared
zunehmen@@
warner
mädchens
deciding
kes@@
29@@
lucy
ßig
demonstrates
gando
rezero
folgten
leitete
bedürf@@
ruins
learns
zähnen
vancouver
terror@@
cit@@
ausüben
toaster
zwangsläufig
consent
aci@@
default
wegs
fruits
einsatz@@
kick@@
grundle@@
libanon
jar
loswerden
kiefer
raster
dragonflies
regulations
ungleich@@
aufklärung
hemd
facebook-@@
verluste
republican
leistet
griff@@
frisch
negotiate
improvisi@@
fortzu@@
chat
stirn
satzes
asche
deutsch
chun@@
presenting
unsinn
jimmy
austauschen
fingern
mathe
nobelpreis
materiellen
hobby
verpasst
intensität
brus@@
augmented
denti@@
broo@@
tasten
lächer@@
veling
brillan@@
refuse
koffer
frösche
staircase
geheime
geography
bänder
sioux
oming
anstren@@
luxus
tating
kat
procedures
hurricane
inflation
handlungs@@
bombsight
expense
persuade
tät@@
einmali@@
wecken
höl@@
dot@@
rica
französischen
sanitation
connecticut
rub@@
ption
blade
grosser
fälsch@@
ghter
appeal
erderwärmung
ough
pedi@@
organisi@@
ungsprogramm
kompetenz
marshmallow
histor@@
cheap@@
heal
dor
egyptian
joining
larven
haft@@
faul@@
dra
disturbing
endeavor
schick@@
tahrir
erspar@@
gigen
hackers
thumb
rises
einschränkung
konzentri@@
refriger@@
schlossen
10.
kais@@
register
affairs
gemis@@
jam
statements
erschreck@@
söhne
diagnostic
16.
rot@@
adh@@
corrupt
ausgangspunkt
weekend
afro@@
nut
abläuft
baus
supportive
mite
komment@@
zeile
temporal
zehntel
geschäftsführer
tromm@@
planting
arabische
völkermord
mississippi
strömen
specu@@
lernens
rechtzeitig
fischerei@@
dreck@@
boar@@
iel
cursor
humble
high-speed
witz@@
conven@@
holder
dolby
befehl
altru@@
biomedi@@
quarks
behauptung
faser
zufolge
alright
saddam
wende
parade
ehemalige
meldet
usc
sponsor
microphone
zeichen@@
fixing
vorherigen
abfolge
c.@@
gebenen
lupe
pianist
injuries
marc
mör@@
beunruhi@@
haushalte
hierarch@@
schär@@
explorer
zittern
cafe
sooner
redak@@
betrü@@
grösste
crystal
victory
assembled
vo
erlei@@
aufen
blüte
einfa@@
78
ausgerottet
prece@@
esten
statistisch
fishermen
entfern@@
synchr@@
unglaub@@
50er
designt
dimitri
gallon
ordentlich
kay
hebel
electri@@
kicked
benzin@@
geheimen
distribute
irland
ier
zhou
fröh@@
zusammenspiel
bonobo
supports
listed
bür@@
lever
velocity
anticipate
lierung
feier@@
automati@@
synthese
läufi@@
logging
bea@@
lever@@
adds
fertigkeiten
distingu@@
founding
bremsen
isol@@
superman
quietly
zusammenzubringen
tch
olly
fers
phosphor@@
adolescence
chuck
einfachsten
accurately
zustande
erfolgreichen
quantitative
südamerika
acknowled@@
promoting
moeg@@
raketen@@
kleber
mitbringen
unternommen
oben@@
offspring
gewebe@@
camer@@
eröff@@
aud@@
acceler@@
vorgeschlagen
tops
salary
erheblich
bewusste
spiele@@
contin@@
trilli@@
steller
sitzung
lean
nehmt
jemen
anziehen
marsch
officials
pinn@@
zerbrech@@
ticul@@
quallen
paraly@@
issen
fülle
basier@@
portable
ankunft
eck
schläft
gänzlich
commit@@
vorhaben
insekt
norms
brennstoff@@
destructive
propulsion
untersuchte
serotonin
secondary
keni@@
tagging
insur@@
umfassende
scot@@
tzung
markers
scheiben
nutri@@
alphab@@
directors
freaks
marines
avian
carri@@
decre@@
shaw
80er
vis
plac@@
mini
iles
fehlende
stimmten
mi
headline
rabbits
kartoffeln
specialists
fossi@@
perspectives
erfolgreicher
moderner
empowering
feder@@
entrepreneurial
50ern
mou@@
portra@@
korrigieren
sargas@@
ausrichten
expectation
render
gewalttä@@
gaining
comic@@
klär@@
toss
wochenende
dancer
programms
replacing
preisen
mahatma
hated
vermischt
rainforests
halte@@
einsichten
multipli@@
occasi@@
hiv-positive
motivi@@
kar
zusammenbringen
91
freundliche
stefan
muti@@
versuch@@
calendar
kreuz
1981
mammographie
predicting
champion
schleu@@
überwältigt
60.000
tasmanian
auti@@
ersatz@@
ngo
messung
e8
regulierung
robin
losses
russischen
angesprochen
einfalls@@
zunahme
stür
geholt
erhit@@
mat
notwendigen
monsoon
betreu@@
waisen@@
dau@@
gericht@@
node
deines
mysteries
mass@@
schiffen
schwä@@
vermeer
distan@@
cochrane
wegzu@@
unterdrücken
befestigt
bekannter
ahnen
beigetragen
mapped
smar@@
bestanden
zwei-@@
fossils
wiped
committee
nur@@
leder@@
sopa
commerce
onnen
abra@@
funktionsweise
kanische
inhalts@@
dering
allgegenwärtig
abspielen
paaren
sagst
bands
belohnungen
tivity
relativity
hul@@
humankind
klappe
doo
gift@@
grossartige
strat@@
innovativ
wehr
fond
ultimative
verun@@
reak@@
minimal
aufzeigen
weisst
erweise
garantiert
voters
atri@@
unded
upward
dedic@@
schmu@@
entlichen
erzähl
trek
ktivität
courageous
jünger
brazilian
innova@@
grob
geste
wahrzunehmen
plug@@
repertoire
amazonas
arrow
vermö@@
tarahumara
sili@@
schlauch
wün@@
dai
lande@@
erhöhten
elend
evolutionären
exhibit
skeptisch
julie
wille
strateg@@
genial
cop
partner@@
nonverb@@
pande@@
helen
disappointed
hiervon
überaus
escal@@
afterward
spheres
towel
stur@@
anz@@
eighth
manipu@@
hugely
polymer
hinterkopf
latein@@
verlangsamen
modest
so-@@
jewelry
chel@@
folgendermaßen
tsam
carol
fundamentalen
heit@@
candy
akzeptanz
neuem
compar@@
mrt
behinder@@
lautete
kalifor@@
regenerative
nurture
pinguin
wählte
ewi@@
redwoods
ausgesprochen
ó@@
arabia
hy
kyros
scharf
dokumentiert
samm@@
ginge
bewus@@
chains
anrei@@
grupp@@
practically
tenth
chers
entschul@@
stac@@
wohnt
modeling
faden
kator
tödlichen
vic@@
participating
pressures
ler-@@
responding
jug@@
grun@@
wan
full-time
gell@@
delight
helm
ideal@@
bonds
schauspiel@@
submit
indic@@
sätzen
griechen
reichte
schum@@
taxi@@
ausde@@
träum@@
galleries
synthetische
sia
bildhau@@
sexu@@
ungsa@@
wonderfully
historian
pastor
tivität
örtliche
emphasize
diff@@
arma@@
faszinierenden
enthi@@
besorgen
reviews
seltene
satisfied
überla@@
sterbe@@
bottom-up
deplo@@
wiederauf@@
angefertigt
hervorra@@
knees
nun@@
ikea
sehn@@
betrachtete
ckets
clean@@
marco
ökologische
engli@@
greifenden
easiest
40s
oakland
fürchter@@
valu@@
neter
sterile
ostafrika
tiefsee
tionary
tageslicht
wäl@@
haushalts@@
etary
studios
crash@@
erwachsener
sonderlich
mem
arktischen
rechenschaft
kollektive
attach
chickens
pregnancy
punch
strato@@
erdbe@@
louder
mathematica
empfindlich
warnung
demut
datum
300,000
differ@@
gebra@@
verursachte
utter
netra
alexandria
encountered
schweben
ography
mineralien
hippo@@
misery
bay@@
schwangerschaft
jungle
blind@@
aded
sterblichkeitsrate
commodities
vermark@@
1979
grönland
krimin@@
grim
entwürfe
verlegen
blindheit
berufe
schießt
kurzweil
strahl
bollywood
aufgegeben
appreciated
nem
gically
fax
constitution
colom@@
ira
evident
divine
graduates
jüngsten
clar@@
onale
kenntnisse
bring@@
xy
gelö@@
cracked
his@@
kratie
skri@@
organischen
begangen
gesün@@
arrange
extremes
1,3
wache
eig@@
examine
träge
neys
antworteten
terien
aspi@@
konkurrieren
orientierung
hühner
zenz
80,000
spielern
vorgeht
circular
locking
biologischer
biotechnology
erholen
bös@@
glau@@
accounting
heights
broadcast
karikatur
bio
search@@
stringtheorie
einsparungen
drastisch
einverstanden
erfolgreich@@
verstär@@
1980ern
sinnen
stamp
sauer
komplizier@@
äußere
wohlergehen
führern
aden@@
1.2
manufacture
anim@@
iden@@
notions
verschwendet
ukra@@
beloved
abfall@@
batman
stößt
negroponte
unbeha@@
lesterland
lizenz
versammlung
inier@@
hochzeit
hein@@
klären
freezing
konzerne
hunger@@
unterdrück@@
begraben
inputs
seller
tödlich
ninth
juggling
klarheit
occupied
duke
discussions
bekämpfung
webs
umfragen
szenen
prescri@@
duc@@
abc
mechanische
fußball@@
jaw
warrior
inher@@
splan@@
pos
@
schme@@
scripts
compounds
künstliches
whistle
wundern
clin@@
ausschalten
konz@@
embodied
refined
globalized
basierten
climbers
oven
navy
vorträgen
emerges
transported
veranstal@@
streckt
dak@@
frequent
mord
tates
beur@@
weis@@
aks
professoren
herauskommt
lays
tization
südlichen
auslöst
float
symbolic
tick
tanten
verbrannt
skeptical
stent
fossilien
wach
beside
cali@@
a.
vision@@
frustrating
do-@@
aches
töteten
bildete
quantifi@@
cybercriminals
stealing
ada
skiz@@
entlassen
zon@@
beängstigend
tories
accumulate
calculating
memorial
überleben@@
axes
nachbar
kontinenten
ha-@@
waste@@
disk
ballast
statistically
erdn@@
angreifen
epilep@@
cost-@@
umgeht
philanthropie
warfen
mild
empiri@@
reine
variablen
mov@@
jack@@
dark@@
cared
bibli@@
unfähig
doppelte
gigantic
170
brennstoffen
impfung
arro@@
samuel
istanbul
ktor@@
enlightenment
o.@@
besor@@
sternen@@
bosnia
emmanuel
geduld
monday
accountable
scheme
assoziiert
squared
refugees
intend
zac@@
barrels
konzert
optische
happiest
universelle
bery
moreover
erkläre
beginnend
p.
integra@@
krankenschwester
produk@@
inte@@
dreamed
astronomical
beschrän@@
warn@@
fehlern
compound
81
sells
ank
normen
hay@@
lations@@
sad@@
vernetzt
geschwister
drängen
aby@@
dead@@
halter
öffnung
sity
breed
circulation
zeichne
enriquez
stati@@
offiziell
bloody
fixiert
leton
chemo@@
wales
loans
geringen
leuchten@@
pfa@@
erreichten
notfall@@
weibo
betriebs@@
geniale
tionist
takti@@
traten
satz@@
mexi@@
riesenha@@
11th
disabilities
herrn
entsetz@@
anek@@
tätigkeiten
derived
demanding
peer-to-peer
engel
gendsten
tribal
swee@@
signatur
marshall
electromagnetic
bullet
uss@@
hive
7.
wanderung
notizen
besucher
limit@@
giga@@
äf@@
kanzi
basement
stellige
bevor@@
evo@@
celebration
parasiten
geistige
hirns
gla@@
erleuchtung
checking
onen@@
aufgaben@@
sudhir
mr
shower
heili@@
fortgeschritt@@
purely
strich
stake
ausgestorben
thereby
digit@@
beugen
syrien
sponsor@@
verwalten
jessica
two-dimensional
arktis
herunterladen
kisten
ktiv@@
manu@@
müttern
misch
unterschieden
carbon@@
portal
kongress@@
sav@@
soldat
adaptive
klavier@@
silber@@
isoli@@
drahtlose
shirky
zusammenzuarbeiten
lane
zimmern
tox@@
ronald
sowje@@
beratung
kostete
guilt
imed
lethal
seasons
umgibt
beschrei@@
externe
vers@@
environmentally
interrupted
precision
auftauchte
wendepunkt
minü@@
ärztin
wished
dissi@@
geschlossenen
lauten
leichte
implic@@
eigung
manufacturers
stimulus
ana@@
ddy
todesfälle
aufgefallen
fehlte
wiederzu@@
197@@
acious
anrufe
ausdrück@@
wurf
subjective
einfühlungsvermögen
regnet
schuh
meth@@
ausgelöscht
farmen
breakdown
ringe
beweis@@
schub
substantial
quet@@
versammeln
eini@@
ativ
zuallererst
purch@@
erweiterte
verwandelte
jor@@
ostküste
brä@@
hinterfragen
iron@@
14-@@
kosmischen
intrinsic
dorf@@
gendste
chor@@
generic
fallschirm
purchase
feminist
screaming
doub@@
firmen@@
eder
kontrollierte
finishing
pursuing
überholt
pr
klagen
interessiere
begrenzten
grauen
unterhal@@
vivid
iphones
thood
heated
kran@@
crab
millennia
nega@@
obsolete
hump@@
fortfahren
äthiop@@
schlauer
weswegen
iming
kahn
norway
anfällig
erforsch@@
währenddessen
ssen@@
plas@@
verstümm@@
biologically
mill
gabriel
pilots
erendes
other@@
wettbewerbs@@
kontin@@
fighters
chromosom
defeat
höhlen@@
acute
funeral
dumm@@
ellip@@
wrest@@
immuni@@
unterscheidung
brüdern
milchstraße
sas@@
aufregung
andre@@
transpar@@
gesetzte
leicht@@
babylon
gefährlichen
negotiating
dste
ghet@@
äl@@
snakes
ausgerichtet
musikstück
nerd
hübsch
posters
imper@@
scul@@
rewar@@
elternteil
konkurri@@
funktions@@
ruhen
beruhigen
chende
cohen
vul@@
bronze
schoss
präsent
defines
pferde
nischen
elbow
zeremonie
finite
photographers
antrie@@
ringen
reforms
fot@@
gian
qaeda
zitieren
aufgeteilt
höherer
mammography
bedeutenden
schützer
satelli@@
geburt@@
tips
jokes
coined
entwickl@@
matches
involving
puppe@@
countryside
universitäts@@
‟
vordergrund
patience
kara@@
maten
reduces
carbon-@@
grass@@
belä@@
flan@@
1965
freundes
rätsel@@
qualified
m.@@
daumen
rollt
passten
tory
magi@@
ohio
bevölk@@
enters
enthusiasm
kilos
use@@
ereignissen
managing
checks
lebendige
nurturing
hin-
ories
parasite
oprah
atmet
fahrts@@
qualle
kurzfri@@
direkten
volkes
leidenschaften
hinzugefügt
irren
usda
äufe
lade
reflektiert
hing@@
deliber@@
endless
redefine
hose
sadness
schuh@@
dil@@
por
münze
konzentrierten
kompli@@
radikal@@
alties
folglich
wonders
ashamed
mmern
raises
vacation
stimu@@
tained
feed@@
fühl@@
fibonacci
grünes
beetles
tierung
maje@@
titelseite
negoti@@
obstacle
upright
deter
action@@
malerei
rekru@@
beteiligung
360
weihnachten
yment
satur@@
unausweich@@
angegriffen
sweise
backed
alp@@
galerien
wendet
sutherland
autop@@
wirbel
noisy
alar@@
innern
überprü@@
reaktoren
ppers
franzö@@
earned
egoi@@
übereinstimmen
ähnlichkeit
ausbilden
cheryl
voyage
schach@@
inherently
investigate
verg@@
anleitung
bte
magischen
vorgehen
verlangsamt
ähneln
atz@@
gesundes
arable
akademischen
collaborate
überraschenden
ingenuity
digi@@
outdoor
teter
gelei@@
gangen
controversy
guer@@
spinnen@@
elli
pipa
verließen
traditionally
blöcke
hamp@@
sexuellen
mantra
fuzzy
bestechung
arkti@@
technologischen
rid@@
busch
blast
barri@@
elders
software@@
adrenal@@
orchest@@
ries@@
heavens
vieh
umzuwandeln
equipped
culturally
eradicate
eingriff
digitales
func@@
engen
papiere
qualitäten
fonds
erzogen
screen@@
stau
mythen
responsibilities
wassers
ideological
gast@@
planetar@@
arb@@
giftigen
pfte
scotland
grocery
ite
vorstell@@
terie
fäll@@
trost
for-@@
schüchtern
handwerk@@
säuge@@
ahmen
libraries
biased
vorgänge
sorten
screens
myo@@
onic
kathedrale
eing
gehä@@
hass
artikeln
agre@@
comparable
vorherzusagen
ktions@@
posten
returns
foun@@
gespr@@
messen@@
schöpfen
deta@@
museen
anxious
vernetzen
chri@@
notaufnahme
nummern
operations@@
bildeten
exxon
gebro@@
strangely
buck@@
pingu@@
ameisen@@
ausserhalb
disgusting
dimensionalen
recognizes
fear@@
umstri@@
71
suff@@
assure
dote
fame
germs
arabien
bten
66
andal
genuine
prior@@
bb
lich-@@
gehörte
hyperbo@@
workshops
hie@@
bedenkt
extrover@@
68
zigar@@
öffentliches
news@@
representing
av@@
evol@@
allen@@
verschle@@
myzel
dank@@
erwar@@
palästina
reinventing
weitem
zaun
ihu@@
teur
ila
transcend
ethische
reist
künstlerische
soccer
ota
r-@@
fühlst
honesty
rar@@
developmental
elevator
wheel@@
kredit
wien
strä@@
mais@@
unternehmern
sehvermögen
reka
kies
stetig
00
saison
anfälli@@
depressiv
utility
viewed
schützt
squeeze
aufwachsen
pher@@
abschneiden
cracy
davis
arise
zivilgesellschaft
prisons
harn@@
kriterien
bosnien
stimulate
schulbildung
abilität
deficit
fisches
stämmen
ägypter
belegt
nst
resistent
redund@@
schre@@
steady
check@@
vorbereiten
random@@
gehende
angeben
mittlere
gewebes
gleicht
clarity
dening
lobby@@
edited
maske
awake
häuft
prei@@
eradication
poll
ographic
herzkrankheiten
releases
mail@@
optimieren
harlem
pfleger
trap
collaborator
delicate
befasst
highways
kompromiss
hop
interessan@@
world-@@
stigmati@@
orthop@@
ables
animationen
aufwachen
bewertungen
nigen
erfassung
schin@@
speeds
religiös
stapeln
brea@@
entities
bless
drittes
verteidigen
photoshop
osteuropa
ausschau
attempts
fellows
karikaturen
admini@@
ethni@@
jahrhunderten
verbundenen
wesent@@
abgele@@
alliance
gegenseitige
deca@@
schiff@@
weitgehend
steri@@
secre@@
yl
voraussetzung
real-time
pyrami@@
ng
live@@
styro@@
zität
fum@@
ressing
hunters
gebt
morally
luf@@
scape
kationen
demokratien
reflects
longest
virtue
acle
kunden@@
neurowissenschaftler
freut
shipped
crum@@
gipf@@
explores
slowing
slip
bruch@@
ark
wähler@@
waited
rowed
confined
6,@@
atheists
rasen
laufenden
pools
quantities
betrachter
enzyklopädie
landwirtschaftlichen
rendering
spektrums
kompletten
repeatedly
reichlich
diaspora
boson
gewohn@@
weitergeben
einhundert
plänen
vre
imperi@@
sighted
personalities
dder
geek
stance
orgasm
entrance
medizinischer
arose
ekel@@
hussein
wohltätigkeit
belegen
lippen
guidance
cris@@
appropriately
homini@@
altmo@@
gesteckt
schnellste
dach@@
schätz@@
inspirierte
künfte
divorce
sheer
gould
ton-@@
manchester
geschäftswelt
redesign
konfli@@
kürze@@
valve
aurora
beruflich
nuclei
swedish
envelope
maitreya
lik@@
norwegen
beobachteten
biologi@@
vereinbarung
gehenden
inne
ladder
verbringe
trivi@@
antwor@@
projections
lei
syner@@
zugegeben
prozessor
hatred
reads
malig@@
numerous
ofen
spannende
instab@@
vergröß@@
checked
altar
bending
beer@@
spektro@@
mana@@
gewün@@
georgetown
nordameri@@
modified
kse
zoll@@
pathie
ises
py
physiology
midst
wounded
pione@@
begrenzung
gi
dreaming
earning
settle
frac@@
gewöhnen
stundenlang
hinteren
af
stadien
yle
refused
beverly
blockieren
wußte
besprechen
ungser@@
excess
tchen
zeilen
zunimmt
krieg@@
geldes
gurt
opera@@
flourish
liqui@@
wiki@@
metalle
grundsätze
conception
verbrau@@
hysi@@
ersatz
verli@@
sandwiches
serviert
starr@@
iq@@
jo-@@
cradle
regenerate
clapping
tad@@
packte
geschlecht@@
bihar
reichsten
strukturi@@
korallen@@
ster-@@
tant
einklang
empfehlen
tsch
tyran@@
unen
noma@@
strieren
recyc@@
phan@@
kontinente
honig
shal@@
notiz@@
racing
schön@@
curator
nuklear@@
veil
farben@@
impfen
peru
anfall
meadow
glenn
gesi@@
light-@@
klässler
lieb
vorschläge
versicherungs@@
theor@@
composer
operator
glücks@@
gründet
eintausend
unsicher
encing
mythology
attraction
reviewed
syria
appliances
engel@@
paper@@
shuff@@
spürte
beharr@@
thu@@
erträge
grenzen@@
helpless
conservatives
fö@@
bens@@
cling
calculator
notwendigerweise
whist@@
holland
gentle
spanne
bass
cairo
verlu@@
erkennung
fünfte
geschenkt
principal
circuitry
thful
pollutants
illnesses
gefäl@@
befehle
gründung
falcon
aufzeichnen
spirituellen
modell@@
camels
weak@@
laboratories
zusamment@@
seitige
folk
orientierten
booten
vage
bedürfnissen
rauszu@@
wanderte
schwächen
acker@@
schlussfolgerung
rowing
stud@@
sturz
tivem
stressed
rechnungen
exper@@
xe
verleger
zeitungs@@
goodness
remembering
cellphone
fresser
uno
installiert
51
geschi@@
enthüllt
roles
update
accomplish
stockwerke
netzen
hotter
hinauf@@
exu@@
erwachsenen@@
revolutionen
musikal@@
speisen
zusammensetzen
explanations
dominiert
aktionen
guta@@
vielfäl@@
conducting
potato
registered
schlan@@
selbstvertrauen
knock
eline
nachkommen
steu@@
hipp@@
tos@@
aquatic
disruptive
unglaublicher
attribu@@
erkenne
verbrachten
hende
verantwort@@
überraschen
macro@@
relax@@
spends
ägyp@@
sis@@
verhandeln
magneten
combining
novogratz
buses
shir@@
seni@@
left-@@
antikörper
gosla@@
ansteckend
jacques
sustained
í@@
trauer
bender
lung@@
dney
wunderbarer
verwirk@@
olive
certified
chunk
motiva@@
mouths
nonviolent
thanksgiving
mität
thal@@
lebensweise
manipuliert
basket
glänz@@
admit@@
bemerk@@
glied
strassen
maxim@@
spielzeuge
grassroots
zapfen
tastes
cockro@@
unterhaltungs@@
sculp@@
auffor@@
schockiert
mons
offener
hinsehen
intelligentes
alert
cel@@
marketing@@
vermehren
boost
implanted
damali@@
gaza
misstr@@
sailing
influences
evaluate
last@@
vermischen
zwe@@
russen
anwäl@@
malt
koch
partnerschaften
ignorance
gilbert
paradies
latte
asphalt
sprozess
publikums
pancreatic
exagger@@
zurückbringen
korallenriffe
foren@@
eye-@@
limitation
unstable
lenses
phtal@@
marvelous
sk
bench
open-source-@@
varianten
bär
lol
austral@@
mechanischen
auskommen
daylight
kleid
poss@@
devo@@
holiday
vernünftige
kerry
bruno
emotion@@
teleskope
angemessen@@
painter
unken
kenden
paradise
riskieren
voluntary
dt
vereinigung
digkeit
vil@@
immen@@
reali@@
method@@
hervorheben
geben@@
twenty
settled
chen-@@
berichtete
declining
verschlüssel@@
menu
employment
impressed
kunstwerk
donation
inierte
non
triceratops
enhance
deple@@
disches
wall@@
tora@@
simpel
statisti@@
wiederbele@@
750
alistischen
ertem
infrared
beneficial
nützliches
ideology
instruc@@
okap@@
sauberes
intrin@@
oly@@
angels
singers
wack@@
bien@@
misch@@
umdrehen
schwim@@
chaotic
gravitational
blogo@@
quiz
teppiche
pyth@@
fuss@@
beschränkungen
stückchen
rückenmark
tural
intern@@
confron@@
votes
wandert
upgrade
einblicke
south@@
befru@@
instances
vor-@@
konkre@@
transistors
gerade@@
geschichtenerzähler
ueber@@
stöcke
olith@@
totale
obersten
schwa@@
israelis
navigation
unterbrechen
erschwing@@
competi@@
novelty
alhambra
bär@@
sovereig@@
terweise
nachahmen
editors
wahlmöglichkeiten
traum@@
wus@@
oxide
verstop@@
close@@
arrest
dep@@
sexual@@
mini-@@
owe
schmuck
w.
deter@@
hauen
characteristic
sig
einhalb
verlor@@
omed
end-@@
cooperate
bewegten
tinkering
anschließen
agrees
optimize
mikr@@
amer
highschool
northwest
haftigkeit
stickstoff@@
angenehme
zusammengesetzt
forder@@
liberals
gosh
stacheln
schwäche
heres
fibro@@
laser@@
explorers
humili@@
schrif@@
8.000
one-on-one
knei@@
suitcase
reiz@@
bahnbrechende
sequenced
mittag
biases
disson@@
bonnie
pubertät
siehe
5,@@
problematic
spü@@
rating
video-@@
disappearing
expose
greifbar
nails
widersprüch@@
antwortet
employed
1947
cp
5.
hooked
schwam@@
beatles
intervene
bioluminescence
negatives
dered
flexibel
sediment
geheimnis@@
def@@
stürme
surplus
kompliziertes
malnutrition
commissioned
shire
scat@@
confir@@
donors
spike
ökonom@@
nodes
erwarteten
seven-@@
governmental
low@@
bündel
langle@@
150.000
clark
kabul
geschlafen
laufbahn
freundlichkeit
laure@@
wahrneh@@
uli@@
starvation
schwäch@@
einkommens
grou@@
exquisite
bump
infinitely
viereinhalb
knö@@
tches
errungenschaften
optimist
impaired
vertierte
sexper@@
cate
agi@@
fliegenden
esst
wi-fi
cad@@
scar@@
greeks
tenden@@
prothesen
verrückter
op-@@
confli@@
kerne
cigarette
schwach@@
chro@@
pill@@
depths
ap
wirkungs@@
technologie@@
mte
verkaufs@@
begründet
bemerkten
ungewöhn@@
terence
stützen
vorberei@@
biotechnologie
milliar@@
heilmittel
täuscht
tabelle
kos@@
mit-@@
abnehmen
8,@@
incidentally
orientation
rädern
zweier
öst@@
conc@@
funde
belü@@
wech@@
zurei@@
egyptians
smartphones
fürsorge
regelmäß@@
lebensdauer
verpackung
synthesizer
chend
gestri@@
honig@@
justin
glory
persönlichkeiten
aussicht
synapse
gesendet
parab@@
naturwissenschaften
energiever@@
continuity
minded
kombin@@
kid@@
commandments
clou@@
bekommst
netflix
bezir@@
betrogen
lasts
schütter@@
fragments
hopeless
spreng@@
applies
constrained
kalender
herausstellte
ausgeführt
stif@@
stimmi@@
iceberg
extending
handful
dimension@@
mücken
aktiver
cruise
eriert
gemeinsamkeiten
vibri@@
butter
wy@@
sst
literal
chu@@
missionen
argued
án
valid
hunderttausend
echo
hartnäck@@
knöpfe
ula
injection
conve@@
fier@@
bezieh@@
o.
antibodies
wirtschaftliches
usi@@
kim@@
focuses
coc@@
ires
trance
romance
nahrungskette
plic@@
menschlichem
umsatz
beans
at-@@
eignen
lest
kaffe@@
inmates
gans
coherent
tauchten
fußball
speicher@@
illinois
integrität
kontroverse
pts
tasse
windenergie
energie-@@
sprobleme
smus
pisa
akademiker
gros@@
abhandlung
aufstand
kilogramm
seymour
cartoonist
saurier
twins
tracked
theirs
free-@@
hasst
hint
lobe
hawai@@
satisfying
hafen
worthwhile
candle
machbar
gelegte
herausge@@
begrüßen
offshore
krank@@
bili@@
aufgeb@@
auton@@
schrei
recycle
herkommt
cockpit
vents
entfernungen
längst
dreck
ais@@
erleiden
vollste
anblick
techno@@
elessly
erziehen
charlotte
ballet
kommunikation@@
aufbaut
irrtum
centered
amino
onie
newton@@
pipelines
pack@@
neuroscientist
command@@
minnesota
einwohnern
shuttle
henden
export
schlamm
lischen
evelyn
spect
schlafzimmer
mum
car-sharing
atlan@@
15,000
ley@@
gebär@@
a.m.
entinnen
erdöl
baumkr@@
kokain
rides
ziegen
cardiac
p.@@
demor@@
entliche
tera
jeweiligen
beam@@
authenti@@
stipendium
bewerben
glat@@
zahlen@@
diejenige
2.5
kaulquapp@@
stereo
verdun@@
harmful
zugelassen
armuts@@
psychiatr@@
organen
jen@@
alg@@
hair@@
distinguish
professionellen
besiegen
betreuung
bezahlung
hansen
kehr
mutual
00s
guatemala
esot@@
mountain@@
arran@@
tortured
zerstörte
älen
cket
atrazin
refor@@
herzinfarkt
scanned
exit
industrien
phar@@
fet@@
anima@@
migraine
hohes
gefiel
consists
abweichung
christus
angst@@
orch@@
beiträge
suburban
listen@@
60-@@
gesteu@@
ons@@
nectar
dankbarkeit
riots
psychopath@@
hormon
duration
achte
alia
alley
gefror@@
cros@@
wash@@
alongside
brokkoli
gewer@@
automobiles
ounce
conscience
überschreiten
inventors
astron@@
involvement
jag@@
critici@@
katho@@
japanische
publication
wertige
korre@@
motive
exce@@
digits
galt
è@@
mega-@@
eilen
accenture
prising
spazieren
hineinge@@
formuliert
dramatische
erwarte
finanzkrise
apparatus
einschalten
selbster@@
coincidence
platz@@
unan@@
hinausgehen
cod
tierarten
stimuliert
jazz@@
traumatic
charming
asis
gewandt
splashy
albern
opposition
ellen@@
successes
erachtens
pragmatic
stich
protesti@@
imf
ug@@
gratitude
dokument
steigenden
abroad
änden
puppen
randomness
schema
fetus
enkel@@
hilf@@
unab@@
ino@@
uter@@
chess
band-@@
sequenzierung
äter
geheim
australian
stil@@
monthly
grü@@
werkstatt
annt
revolutionary
eingreifen
luden
rechenleistung
gül@@
vest@@
drehung
modes
conceptual
non-lethal
coins
iere
vibrating
keiten
mysterium
atten
cative
decides
wre@@
caribbean
ann@@
hillary
hässlich
leys
toler@@
geringe
catastrophe
qua@@
täuschungen
elektron
griech@@
wal-mart
magische
accor@@
klettert
popcorn
kleider@@
schlepp@@
chinesisches
consistently
schock@@
fog
post-conflict
migräne
weitergehen
ram@@
suspended
revealing
tightly
dezentr@@
leugnen
gesinn@@
resem@@
drift
entle@@
stren@@
ungeachtet
ausser
auswahlmöglichkeiten
zerstörer@@
sigen
surroundings
willkür@@
skilled
geometr@@
chi
körpersprache
ruhi@@
weißer
grenzt
tner
dee@@
operiert
comedian
verstorbenen
resolved
wickelt
illusionen
schütt@@
linear@@
fossile
ursprünge
metrics
swing
bron@@
jour@@
entzün@@
nördlichen
accelerated
staunen
schwierig@@
delivers
lag@@
fted
anischer
lassung
clari@@
zauber
tigte
pav@@
aufpassen
transfor@@
sofa
1.3
toxins
vorlieben
fiscal
budd@@
questioning
recon@@
schlachten
crow@@
psychologischen
klam@@
wähler
palestine
convi@@
begegnet
darstell@@
semi@@
dus
tofu
gesegnet
hattest
jose
white@@
hacken
käfig
kennengelernt
mathe@@
wohnwagen
rho@@
außerirdische
seltsames
benötigten
plün@@
weitrei@@
mming
progr@@
vernunft
täts@@
igte
klebt
quantenmechanik
sebene
retreat
abend@@
mungs@@
ela
läufe
ethischen
vt
wöch@@
rendered
mitochondri@@
cochlear
vernetzten
patrick
standpoint
sänger
consideration
swar@@
efficiently
kriminellen
öffent@@
mills
subsidi@@
bemerkenswerten
rockett
projektion
ticals
advocate
supermassive
positiver
spills
unzählige
peng
erheben
disciplinary
prag@@
black-@@
nazis
improvise
videospiel
ttered
slept
ausland@@
mäßigen
achtet
unschul@@
tweets
kie@@
pops
contamin@@
ftet
verband
wehren
mrs.
derzeitigen
tedwomen
lob@@
goog@@
kühlung
denjenigen
auffälli@@
netzhaut
blues
trocken
myths
kissen
onists
intellektu@@
centimeter
alterna@@
kürzer
spontan@@
specialist
pst
noten@@
flusses
brem@@
omy
langem
laugh@@
übel
fie@@
besaßen
verläss@@
stickstoff
‚
schreckliches
strengths
fisheries
automaten
borough
chad
metal@@
fakultät
feste
nex@@
caregi@@
stering
xen@@
enheit
gewässern
bewusster
tern@@
pleas@@
funktionierende
geschie@@
blätter@@
einander@@
steigen@@
ungleichgewicht
contradiction
flock
ando
plau@@
sem
minderheit
amerikanern
situ@@
funken
werben
la-@@
verschwenden
mcdon@@
auflösen
kulturell
intri@@
ffekt
gründlich
writes
yn
affe@@
wee@@
fahrzeugen
kaninchen
leidenschaftlich
tums
durchge@@
routin@@
aufgezogen
rainfall
hüb@@
betritt
typing
bakterien@@
wax
bühnen@@
deprimiert
urbane
summary
autonom@@
crun@@
victoria
physiologie
volcanic
kommun@@
edit
referred
xes
lick@@
spartner
ansteigen
labors
dump
reinvent
policing
emission
russians
raumschiff
herzleiden
judges
beabsichti@@
mächtiger
nordo@@
digitaler
früherkennung
eingang
patter@@
bereitete
usable
drachen
tationen
spiegeln
völker@@
relates
kw@@
drück@@
andauernd
archet@@
obli@@
schadstoffe
frisst
produzier@@
sischen
glaciers
elec@@
strips
employ
independently
herbie
verlegt
denmark
ologin
wahrer
parken
pediatri@@
continually
innovativen
hence
belohnen
griechischen
aufwärts
partial
co2-emissionen
anti
schwin@@
weiterentwicklung
dwar@@
tbp
empowerment
blutgefäße
delighted
sketches
verschwen@@
pazi@@
plur@@
abwärts
kranken
synesthesia
darwinian
jüdischen
foam
genü@@
maintaining
bade@@
scarce
makro@@
zenten
attraktiv
westküste
invitation
realisiert
gphin
skies
schauspielerin
spanisch
werkzeug@@
fügte
observer
compatible
blink
fle
dämp@@
lyn@@
slight
eintritt
rahmen@@
g.
blur@@
sheila
liger
vernetz@@
auseinandersetzung
bearbeitung
emma
generi@@
smi@@
inji@@
abgesch@@
doodling
antike
isse
fürchte
gliches
tability
stuart
ablaufen
volt
gin
biolumines@@
shrink
loslassen
unintended
epi@@
anytime
state-of-the-art
mosk@@
penetr@@
hunde@@
laborat@@
zufällige
effektive
festgelegt
unglück
zep@@
krisen
südafri@@
hurri@@
linksliber@@
keram@@
ernsthaf@@
flüssen
gallons
authentizität
jahreszeiten
collar
equator
provinz
gesamtheit
yang
veröffentlichung
arly
spenden@@
infer@@
atrazine
rail
justify
kultureller
mer-@@
metaboli@@
kuba
gelagert
angezeigt
arrows
schöpfer
pfeiler
offenbart
knü@@
odysseus
sticky
developments
gekostet
protozelle
establishment
trank
submitted
schockier@@
valued
betracht@@
beste@@
gebete
repres@@
bedien@@
unbeabsichti@@
beauftragt
harvesting
lining
verabschieden
ulose
diabe@@
fieber
offenbarung
derte
anschluss
massiv
nötigen
interaktive
school-@@
rasi@@
offensicht@@
passiv
welch
erfolgsgeschichte
nom@@
anzieh@@
gedruck@@
mem@@
matching
dünger
fertiggestellt
rett@@
arian
komman@@
kommende
creators
recherche
win-win
signing
erfreut
gheit
wochen@@
inwie@@
londoner
abhängen
robicsek
guar@@
tech-@@
bewege
vergewal@@
roboters
treibung
hydra@@
h5n1
kles
degradation
spitzen@@
maj@@
recipro@@
scare
erfanden
good@@
teln
addicted
conclusions
ausgang
quarti@@
goats
derzeitige
reasonably
sier@@
irre
larvae
fool
warteten
bevölker@@
flachen
ernest
consi@@
schoß
bmi
merkwürdige
verschie@@
progressive
ativen
nier
geschahen
muse@@
eding
infr@@
kommerzielle
vorräte
tust
befrei@@
poets
nord-@@
selbständig
nai@@
eco-@@
colleges
jahrhunder@@
bezahlte
furcht
martha
angerufen
behindert
ati@@
angelangt
365
wahrhaft
hoffnungslos
boten
geliefert
parked
barriere
zehnmal
barem
vertikale
relax
szenarien
grief
zweifellos
pristine
math@@
usage
konstant
ethisch
commun@@
posts
chtert
errei@@
demographics
tching
lyri@@
blows
stiger
süße
embassy
genuss
retin@@
knocked
supernova
stere@@
enabling
illegale
visceral
unified
appe@@
geliebten
phil
squee@@
fitting
multiverse
transmitted
constit@@
absur@@
häufigste
irrever@@
tolerant
limbs
schwingen
tality
elementen
sprechend
stocks
spam
haha
edison
gefördert
richtiger
bestimmter
jüdische
face-@@
produzent
ständigkeit
durchdringen
operieren
dler
grip
umfangrei@@
überwältigend
hormon@@
ist@@
attend
400.000
comprehen@@
schmer@@
jesse
ego@@
proteinen
dynamischen
gaga
transistoren
spine
contents
16-@@
theft
erik
rezep@@
galvao
programmer
vorhan@@
dged
befestigen
prozessen
autonomie
meistern
ghtest
höch@@
ps@@
dune
pedestri@@
ende@@
harness
stange
realities
vorlesungen
tium
jün@@
slave
reporters
dokumentar@@
ogen@@
begeg@@
crowds
typo@@
-system
retired
ystem
lynn
theater@@
casey
ausbreitet
modelli@@
sor
approval
banned
ultravio@@
j.@@
hannah
ci
checkliste
zusammensetzung
aufzuhören
glicher
desig@@
applause
geg@@
widerstehen
ima
menden
irrigation
individuell
theatre
areal
datei
battle@@
alligator
stress@@
violin
bumps
drehten
rissen
würdigkeit
bevölkerungswachstum
hack
findung
mustard
heiß@@
agno@@
glucose
otte
legos
dennett
ermu@@
anschaue
dah
hh@@
recovered
unterhalts@@
gleichermaßen
befreiung
88
scru@@
vieh@@
displaced
ening
hellen
igt
diver
elvis
terr@@
kataly@@
poorer
reflexi@@
rhex
orgasmus
dreieck
attributes
pfeil
nuan@@
nings
ression
lux
typischerweise
fraser
tremendously
po
zuhört
self-organizing
springs
ingt
fertility
beit
klugen
vorsorge
atori@@
heiratete
troy
hörer
schwerpunkt
widespread
kämen
nazi
betten
gehor@@
brillante
gewiss
erstellten
intricate
lean@@
muni@@
netzwerk@@
survivors
fertilizer
occupation
directed
sieh
sidewalk
attribute
accompli@@
orable
fötus
reinigen
puri@@
gerichts@@
lachten
geborene
traditionell
laundry
sustaining
existenti@@
schüsse
lette
cele@@
außensei@@
journali@@
romantik
ideologie
torial
verwickelt
low-tech
restau@@
anonym
crushed
competitors
accommo@@
spritze
bamboo
erwartung
bemüht
konservativen
ischerweise
schooling
arithmetic
nicely
rup@@
tante
environment@@
fos
fasz@@
thermo@@
screw
elektrisches
d-up
vorbeu@@
250,000
varieties
trait
assistant
freeze
glamour@@
dehnt
bräuchten
kümmerte
latr@@
proji@@
breakthroughs
peaks
lider
hineinzu@@
schwieriges
umar@@
zusagen
kritisch
verkauf@@
dam
cherin
histori@@
nische
verborgen
searches
pressing
iten
inherent
esther
kooperieren
right-@@
bestimmung
drake
tata
befra@@
jets
hi-@@
verlorene
edith
scream
vani@@
proportion@@
biomimicry
angeb@@
know@@
producer
kell@@
lightning
scop@@
unemployment
coordinate
orts@@
sham@@
quir@@
fähiger
recher@@
attempted
documenting
cl
eindrucks@@
enzy@@
maslow
funden
dug
konsi@@
archy
metabolic
winners
head-tail-@@
lierten
lled
ethnischen
spite
nightmare
spades
beschäf@@
mastery
konservative
elefant
visitors
herzens
launching
genannte
stepping
asto@@
hopkins
skam@@
matte
desertification
recipi@@
fotogra@@
fulfilling
handvoll
hers
multi-touch
quadra@@
möbel@@
low-income
imple@@
blocked
öls
technologischer
hinder@@
employee
gehoben
worries
handgelenk
mäßige
contagious
außergewöhnliches
tres@@
zeln
hour@@
cues
packaging
kuli@@
einheit@@
cow@@
stero@@
thouse
cleveland
guckt
schwarm
explosionen
spektakul@@
medications
irak@@
aggressi@@
atombombe
fred
injustice
imitiert
wandels
spontaneously
floors
warte@@
struc@@
hingabe
geliebt
plätzen
verkörpert
parap@@
bump@@
wärts@@
lis
nation-@@
sonntag
reactors
fies
grabs
flexibility
highl@@
verbün@@
budapest
sprechenden
rotating
abschied
studentin
pfe@@
dumped
beau
mubarak
phantom-@@
präz@@
monument
rufus
share@@
pilzen
ingenious
greg@@
sporen
pepper
harv@@
macy
ised
vergleiche
endem
fusi@@
intimität
madison
ehrlichkeit
glow
contradi@@
kopfschmerzen
gegenüberstehen
matri@@
benef@@
rescued
bucket
vals
jabbar
telefonen
bestellen
aggression
shaping
fünfzig
wahrsten
1,2
bakteri@@
-in-law
ersti@@
ausgeschlossen
reichhal@@
recep@@
transa@@
löste
zuviel
zuverlässig
hens@@
falken
desires
ministers
sman
erlebnisse
art@@
tsche
contest
änge
fertigung
akteur
watches
toll@@
treaty
wahres
akteure
dka
vereinfachen
deploy
flüssig
sperren
1500
educating
tress
mustache
koopera@@
herumlaufen
greifen@@
hervorzubringen
bewundern
question@@
icy
lehrer@@
iner@@
conditioning
serra
neu-@@
erwerben
befrie@@
vere
wissenschaftliches
pps
bulldo@@
tehran
rabbit
stik
michoac@@
day-to-day
locke
abandon
etiket@@
distorted
blutdruck
cognition
frühere
verank@@
mash
provi@@
mortal
verwal@@
mold
drucks
fluidi@@
bil
arrangement
koff@@
mediate
convul@@
einbezogen
baby-@@
intelligen@@
kontam@@
arten@@
beschränken
rhyth@@
giants
drinks
inventing
unschuldig
schrittweise
ktisch
steig
zellen@@
diagnosti@@
counsel@@
amateurs
betreibt
führungskräfte
winziger
matisch
dealt
br
erem
ades
lotto
bounce
sati@@
surfen
#
snap@@
routinely
siv
eingesperrt
bruchs
anthropologen
zentri@@
cookie
naomi
klippe
chau@@
startet
athletes
ferin
förmig
ancy
nanotechnology
minor
lingu@@
antiretrovir@@
abwesenheit
delt
eliminating
packing
mast
priest
verkünden
regulate
dee
tizing
hindi
semester
gating
garanti@@
steckten
buff@@
endo@@
geistigen
klebeband
politik@@
einzuführen
cultivate
weinte
ausgedacht
bewertung
reflective
neugierde
quie@@
überschritten
kari@@
rigi@@
bekanntes
glatt
abschluss@@
merkten
bundesstaat
sammlungen
sages
insel@@
rotation
fmri
bankers
met@@
grundstück
bind
crawling
lingui@@
myhrvold
apologize
heimlich
beschleunigung
playground
datensatz
garantieren
gesam@@
elder
bißchen
vc
actu@@
verschieden@@
gratis
commu@@
addressed
fassten
testosterone
fracking
ease
wolken@@
höhen@@
oppon@@
nell
diskre@@
sicheres
awards
63
oter
dependen@@
widerstands@@
umkreisen
soviele
ceram@@
synästhesie
textile
penetrate
cuba
metaphors
firmly
pestizide
brillen
reject
haustiere
amer@@
mellon
oklahoma
hangs
dopamin@@
erschwinglich
pore
ak-@@
verändernde
cross@@
gigab@@
communal
schon@@
interaktiv
gänz@@
gul@@
bindet
jonglieren
configuration
percep@@
anhän@@
merito@@
überlebenden
risse
regenerieren
zufügen
innovators
frisch@@
ati
bloße
gehörten
werfer
correspond
thread
intellec@@
biene
athlete
shallow
emper@@
feucht@@
dividing
out-@@
hes@@
censorship
beleuchtet
hilfe@@
pavilion
rigid
industrialized
sought
levin
blauflossen@@
kugeln
aer@@
überschwe@@
stechen
liebend
kippen
rooted
trunk
wasting
salman
drauf@@
abgeschnitten
präch@@
brecher
enrich@@
antibio@@
cin
stence
ori
intrinsically
ffe
sexuality
argentina
beginnings
erotic
casting
blockiert
digitalisieren
repräsen@@
schlechtesten
logos
trenn@@
füllte
replicating
erschütter@@
chari@@
vermehr@@
lessness
assessment
rän@@
versuchung
hindert
gn@@
winziges
bloggers
dictionaries
gigantischen
rechtfertigen
eigert
associ@@
mentary
auftaucht
gase
mobiltelefon
gamble
sourcing
priorität
replizieren
nähert
stoffwechsel@@
verleiht
orphanage
rant
vergewaltigung
reje@@
locker
verspreche
extra-dimensionen
bypass
langlebigkeit
ventil@@
ppel
essay
respiratory
günstiger
hardy
drehe
aufnimmt
eimer
variability
betriebssystem
minu@@
legend@@
collaborators
beaches
ewigkeit
perman@@
billboard
wallet
seven@@
jährliche
submersible
zigaretten
broadway
betä@@
preventable
skydiving
balloons
nanome@@
penicillin
wertes
annoying
slowed
manipul@@
neanderthal
ambiguity
immernoch
sup@@
hervorgebracht
mineral
ilen
complaining
leon@@
genauen
wichtig@@
verlieben
aerial
geiger
gär@@
lebensmitteln
squat@@
laura
anbau
ungerechtigkeit
kapazitäten
brid@@
parameters
kennenlernen
bedroh@@
mba
weites
hyderabad
promp@@
überein@@
informal
entwicklung@@
geister
balanci@@
attachment
of-the-@@
koll@@
sauberer
chender
angenehmer
corn@@
kuri@@
fast-@@
preten@@
treas@@
sehnen
envy
tim@@
gad@@
inser@@
fertili@@
rm
tzellen
hoo
settlement
videospielen
developer
bestra@@
til
vorbilder
frische
notwen@@
genic
cherung
kühlschrank
carcin@@
emit@@
peac@@
üpp@@
übermitteln
grundlegendes
gupta
tauben
derart
bedingt
ruiniert
problematisch
eindring@@
mt@@
teur@@
farm@@
kennen@@
ausflug
back-@@
französisch
suburbs
cock
comprehensive
unlock
snap
aspirations
tumor@@
kreuzung
weal@@
ächlich
empf@@
trainings@@
eradicated
fs@@
sz@@
bananas
tung@@
recap@@
isolieren
korrup@@
splan
spaltung
acity
lokaler
unite
witzig
square-@@
negotiation
ausgeklü@@
quat@@
ironically
schleifen
missouri
kost@@
translating
protozellen
25.000
tb
donations
manages
sburg
skip
hu
seltenen
beherrscht
mühle
indoor
verbren@@
99@@
son-@@
mangro@@
scharfen
iowa
behauptungen
helikopter
boiling
ezra
psychopa@@
sterte
cowboy
trailer
space-time
240
sonnensystems
juven@@
undergraduate
akten
olymp@@
gewand@@
gezahlt
bulg@@
fab@@
chore@@
preserved
besitz@@
abalone
pflegt
spende
steigende
selbsthilfe@@
fortsetzen
reisten
richti@@
magnets
cabinet
eingebracht
verletzlich
verblei@@
dirigenten
enthusiasmus
musikalischen
likewise
world@@
desaster
bräuchte
incomplete
ene@@
geese
entsprechende
benutzung
fry
synapses
sque@@
echtzei@@
isla@@
zwingt
wegnehmen
ashed
let@@
submer@@
oktopus
gedächtnis@@
gger
überprüft
glichkeit
pus@@
unpredictable
convenience
shells
siberia
virus@@
verni@@
hunder@@
inhaf@@
ffed
ausgesucht
corrid@@
melody
oberfläch@@
sperm
herab
ingu@@
nail
blackberry
multitasking
auditory
7-@@
linguistic
derjenige
anfänger
beobachter
interviewing
abgestimmt
training@@
erheb@@
gewannen
abstimmung
geraden
wandeln
unerwartet
saurus
booth
implication
skrankheiten
distri@@
bloo@@
investigating
trusting
hamlet
märchen
t-shirts
gedruckt
vietnam@@
verban@@
ermordet
explode
jacket
außenwelt
ato@@
paleont@@
frontal@@
hubschrau@@
konnektivität
tails
einfangen
kunft
67
verte@@
macintosh
zustimmung
verbre@@
laden@@
fertige
partisan
deen
beheben
perpetu@@
solltest
bour@@
treffer
aufspüren
oral
tinten@@
zün@@
r.@@
onk@@
vorstellt
bieter
worship
catalog
undeutlich
philips
stellen@@
kugel@@
pet@@
deckte
kampfes
affir@@
empfindet
scholars
arr@@
makeup
correlated
drowning
kost
of@@
babylon@@
altogether
aufenth@@
lak@@
td
airbnb
unbewusst
nuklearen
mity
anern
introducing
troubled
prüfungen
kämpften
bewertet
berners-lee
14.
islamische
visuals
prizes
lässig
straß@@
individually
bleibe
philosophi@@
fotografierte
funktionierten
mensch-@@
netter
province
kompe@@
ref@@
arabisch
evolves
verlasse
discussed
stücks
volcano
jeep
mato@@
lements
preservation
gkeits@@
hierhin
hörern
gestimmt
wrin@@
gefoltert
eins-@@
hotel@@
anga
grosses
retail
charcoal
fünf-@@
verbergen
misser@@
amateur@@
himalaya
billigen
arin
zufrieden@@
präzision
opec
veranstaltungen
dschungel
aggregate
pathogens
stammbaum
compla@@
aire
zack
stake@@
ambulance
verbundenheit
anwes@@
abkürz@@
gefäß
marathons
zerbrechen
mbi
tain@@
kramp@@
dez@@
steins
bischen
operational
leug@@
epiphany
nächte
wertschätzen
gier
wiedersehen
charak@@
triangles
hilfsorganisationen
disconnected
make@@
apparent
davon@@
handels
anziehungskraft
fic@@
yo-yo
centigrade
familienplanung
fills
hinunter@@
profitiert
kameraden
leum
degraded
angehalten
protokoll
fünften
solidar@@
kleb@@
stimuli
al-qaida
commonly
ironischerweise
strictly
gorilla
celebrating
flori@@
gefeiert
governor
emotionales
campaigns
seil@@
zational
zweifel@@
rent@@
dollar@@
angel
developers
verdanken
friend@@
forbid
verl@@
lier
executive
oxi@@
spark
epit@@
thirdly
fo
turtles
is-@@
pins
ath
meantime
marx
neurological
puppet
flood
izing
suggestions
ranger
remin@@
inject
vet@@
harb@@
sic
dood@@
stical
kofi
ills
chie@@
payment
sympathy
hurts
depressing
graders
absorbed
auto-@@
siblings
migrate
ruled
execu@@
prevents
sanit@@
vietnamese
grizz@@
pesticides
oblivi@@
spouse
suite
megab@@
indoors
laying
entity
ult
tled
hazard
criticism
ariely
obtained
execution
promotion
inviting
lized
acquisition
ada@@
gho@@
gna@@
tribun@@
enco@@
cane
hallucin@@
respectful
measurable
differ
stretched
menting
himalayas
jean-@@
legendary
fights
cess@@
realizes
ambiguous
curved
packs
moz@@
imposed
deserts
1966
analyst
autistic
fulfill
billion-@@
barbie
stly
peter@@
ethiop@@
profiles
lip@@
eries
entertaining
sinclair
lement
telephones
sweeping
yel@@
suspicious
eco@@
sket@@
fungus
good-@@
throws
performs
steer
remotely
boyfriend
anticipated
uruguay
whistling
adventures
dragged
conferences
weed
mites
ddled
drilling
extensive
feminine
conqu@@
basics
shouting
pass@@
mack@@
ghtful
starter
dissemin@@
altos
performer
identities
awar@@
cubic
continuum
judy
integrating
mail-@@
profi@@
intersection
nests
doubling
censor@@
insecure
mosque
trust@@
midnight
excer@@
strous
wit@@
ecolo@@
negotiations
mble
ashes
bloom
grounded
noticing
glowing
tian
surge
iranians
remot@@
verge
vola@@
iny
carson
excellence
recipes
vorführung
pascal
spann@@
eson
entfernte
müsse
radiowellen
astronauten
realistisch
kontrast
herz-@@
kometen
schlugen
geschw@@
designer@@
erwiesen
verwei@@
phantom-arm
ruhe@@
stiftungen
itä@@
begehren
entdecker
yellow@@
aktien@@
klüger
rohr
bon
makoko
jemandes
loszuwerden
hervorragende
krebse
canal
ökosystemen
orni@@
isot@@
meeresschutz@@
gerichte
gus@@
strategische
schmecken
verbesserte
deregu@@
äus@@
holten
beliebtesten
mierten
freiwilli@@
benehmen
fatty
halls
artic@@
extre@@
dock
beschweren
wertet
wundervolles
städtische
fotografien
dorfes
erzeug@@
modernis@@
uchen
brennt
pazifi@@
vernichten
rekord
unterneh@@
urbanen
bän@@
verkündete
loge
begei@@
saugen
bewegenden
soeben
ehrgei@@
ario
getrunken
aufbau@@
verfein@@
sag@@
häufigsten
dengue
kommuniziert
fahrung
ungsmittel
combinations
bewäl@@
liessen
arbeitslosigkeit
mancher
rationale
verrück@@
d.c
gummi@@
drungen
v-day
geehrt
aesthetics
verzö@@
flüssig@@
rossy
minto
maldives
1858
zwangs@@
montag
coolen
skop
slate
stap@@
tod@@
onies
mediterranean
köni@@
gir@@
pfl@@
cynthia
zerbrechlich
verd@@
alltags@@
instincts
artefakte
ballons
bergs
1970ern
beherr@@
eich@@
mantis
automatic
disku@@
ffel@@
wähle
8.
prostatakrebs
poorly
torna@@
yi
intentional
iran-@@
schatten@@
fester
....
nomin@@
bewässer@@
hosent@@
complain
weggehen
finanziell
schimpanse
celine
menschenmenge
crick@@
bilbao
mikrofon
sein@@
surprises
kus
sprichwort
verdeutlichen
habitats
dis
officers
hungersnot
eps
lifelong
sanitary
küssen
aktuell
qual@@
prostat@@
yahoo
ktives
ablehnen
remix@@
kath@@
nieren@@
prozentige
festlegen
15.
nashville
beschützt
filter@@
oiled
argent@@
titude
nagel
jaws
gesellschaftliche
one-third
gewichts@@
rationen
haupt
interference
betreff@@
erkranken
lerne
besonderer
elung
berührte
marvel
bohren
vorschriften
vertrieb
tzlich
nab@@
nachmittags
hübsche
schir@@
bath@@
molekü@@
schmilzt
indirekt
franzosen
reise@@
kose
kunstwerke
30er
begeistern
werbes@@
inform@@
fertigkeit
tugend
festgehalten
ehrfurcht
dnis
sibirien
gesamtes
terie@@
brin
färben
stören
einschrän@@
blaues
warfare
vollzeit@@
250.000
struggled
erzielt
säuren
pakistani
beseitigt
ape
decei@@
geckos
abnahme
nord
gereicht
reserven
nib@@
akzent
annimmt
darwins
facht
staggering
ökologisch
gefe@@
vernünftig
bedacht
bruttoinlandsprodu@@
abbau
u.s.-@@
lian
vorsicht
entscheiden@@
gitar@@
vens
nchen
bandura
verschreiben
reichten
eigener
grössten
beard
seits
versprochen
umwand@@
erwähne
barrieren
fünftel
autounfall
erhöhte
gutem
dürfte
haupts@@
belange
einflöß@@
chtige
bulk
mcluhan
unterschätzen
gesteuerte
esch@@
käufer
erklärten
noises
12.
beängsti@@
neumann
biography
explodieren
eno
nasen@@
werfe
meilen@@
stenz@@
buys
dimin@@
ums@@
verzeihen
angola
druckt
vortra@@
ehemaligen
repu@@
zuverlässi@@
komit@@
twen@@
aktivist
hilflos
nigerianischen
llig
yp
nadel@@
7.000
gemeinnütz@@
kostengün@@
placing
whirlwind
per-@@
begrüßt
know-how
ide
verkörper@@
enthüllen
lkws
drei-
ungeheure
elektrischer
cad
willingness
jährlichen
betont
segen
mutige
mutigen
technischer
futter@@
gewusst
geschei@@
banal
hältst
vorüber@@
explodiert
uri@@
flexibilität
existi@@
gifts
darstellungen
undurch@@
datenbanken
dunes
senen
responsive
weekly
klü@@
konventionelle
kontinuier@@
elektri@@
irgendwer
carolyn
nachdenke
ein-
vorherseh@@
rohre
custom
ansehe
knete
najmuddin
verfügbarkeit
shadows
cleaner
kling@@
viewers
bauchspeicheldrüsenkrebs
compose
wages
oon
anthropolog@@
behandel@@
cles
correspon@@
t.@@
frak@@
deceased
sagmeister
skycar
beachtung
ber-@@
class@@
klinisch
futur@@
forscherin
gemeinde@@
lila
original@@
worldview
unbekannt
geographi@@
symphonie
enlightened
resonance
berufen
sync
künstlerischen
donated
southwest
animate
pervasive
willkürlich
heißer
hna
auslöser
gängen
tapped
förmigen
verschafft
periodic
fantas@@
geistig
summar@@
gebur@@
hypothesen
auszubilden
killers
1929
chlor@@
bohrt
fels@@
instinctively
victor@@
resonanz
sechst@@
rebel
ausseh@@
1908
guided
flammen
chtig
respektiert
planten
papi@@
beginn@@
stirling
intangible
vivian
erfolgt
amo@@
beth
humor@@
assistenten
monu@@
auswendig
papua
eeg
tyler
nathaniel
mittler@@
nk
dyson
lec@@
ologies
indiana
kopf-zahl-@@
kindersitze
balcon@@
vegetation
1800
kamele
primzahl
uv-@@
sequenzieren
heroin
lucas
neanderthaler
zwecken
anen
einzustellen
academics
moms
jake
etablieren
dna-origami
manuscript
erstreckt
bomben@@
shah
platzt
schütten
nicht-nullsummen-@@
eja@@
aviv
angehöri@@
malediven
isra@@
cists
gadgets
disziplin@@
nanometer
doodlen
kampagnen
atmospheric
analphab@@
sulfide
gleicher
bananen
fassung
schnurrbart
gange
ambassador
prozessoren
peln
überlegte
lev@@
filme@@
liby@@
klienten
überträgt
spulen
unauf@@
boarding
sea@@
ez
johns
gather@@
anwendungs@@
geräuschen
mythologie
verbraucher@@
plutonium
poland
simulated
beiträgt
urheber@@
großbritanniens
richards
juri@@
northeast
kentucky
nützliche
benign
mista@@
cardiovascular
phas@@
verlierer
quadratkilometer
mathematisch
synthesize
prou@@
butt
jacob@@
develops
effektiv@@
veteran
zeig
lichtgeschwindigkeit
profil@@
jean
nordkorea
fliegende
stomatopo@@
decentralized
rip
solar-@@
heirat@@
cion
offiziellen
mitfühlend
grin@@
agnostic
regionale
concei@@
geschni@@
zusammenbringt
programm@@
dich@@
personnel
hoden
memo@@
belan@@
michel
psychologe
flucht@@
uv
kerle
whip
löchern
fuller
concent@@
begrenz@@
phen
iraner
flown
hof@@
volk@@
liz
doll@@
fernen
prozess@@
styles
explicitly
ros
sala
komplex@@
atlas
überprüf@@
laparo@@
street@@
spaziergang
britannica
ih@@
starrt
gebil@@
prognosti@@
some@@
trieben
arc
fairy
rezeptor
presentations
vitam@@
bras
veter@@
himm@@
relevance
erseits
refu@@
geriet
lebensform
curtis
alltägliche
ury
selective
synago@@
capacities
äußern
wohlhabenden
s-on
numb
contexts
gels
simulationen
bush-@@
sän@@
wandering
volu@@
k.
buckel@@
mischt
holly@@
hinab
jewel@@
orbital
olds
yoga
take-@@
west-@@
dictator@@
12.000
aufzus@@
dritter
sopran@@
lerin
rigen
bo-@@
freigesetzt
turbin@@
tso
fashi@@
offizielle
mierte
strationen
kenyan
billion@@
ros@@
fäl@@
obst
wirtschaftskrise
loh
erschaff@@
bobby
scaled
illustration
yam@@
fordere
pseu@@
funktionierenden
mund@@
herausra@@
hackt
contributions
mmm
schrän@@
zweige
fesselt
opho@@
trommel
abzuhalten
officially
2,500
casual
erstellte
cav@@
abgrund
unvermeidbar
determination
zuspielen
sser
-bewegung
landwir@@
tiniest
öhnen
any@@
bereichern
monolo@@
disconnect
railroad
zwi@@
nixon
schütz@@
gefangene
erfinder@@
schem
atemberaubend
burschen
senkre@@
allererste
interagiert
enting
witn@@
diagrams
allan
faszinierender
überstehen
biolumineszenz
unheim@@
replic@@
som
tilien
food-@@
fast-forward
sehkraft
u-bahn@@
testimony
interaktiven
schilder
lustigen
thirds
vollständigen
bereit@@
mandel@@
thrive
verwirrend
glaubens
zutrifft
tagsüber
quadrate
einher@@
besuchten
transferred
palace
flügeln
brot@@
potentielle
vorlesung
ermäch@@
2013
bereu@@
sens
naturschutz
vollziehen
biert
josh
tually
formte
verdrahtet
discre@@
sushi
stiker
birgt
scholar
translates
lyn
thou@@
herauskam
enced
insky
vague
rouge
malaysia
engths
infrarot@@
lebensformen
moti@@
teheran
eintrag
needing
scherz
hnen@@
herange@@
wikileaks
underestimate
dän@@
madness
gescheitert
matics
zig@@
argu@@
sarajevo
rightly
prone
sweat@@
ratings
ores@@
indul@@
10th
wehr@@
oting
titled
chariot
weir@@
chol@@
wey
pinker
crowded
illustrates
saf@@
processors
explosions
serendi@@
ignorant
650
schedule
daw@@
eloqu@@
soft@@
urgent
quadri@@
interval
blen
smiles
acceptable
punk
margin
iker
morgan
gratu@@
carbonate
easter
inadequate
lindbergh
thur@@
sect
rais@@
pillars
burma
flag@@
zetas
recei@@
juli@@
gand@@
haas
fisher
aspen
recor@@
daisy
seat@@
shri@@
obsessi@@
ree
inclusive
hindu@@
protag@@
buckminster
australi@@
ile
scottish
daphne
ml
osi@@
haul
wisconsin
funk
kiva
carrot
rut
nih
mosa@@
senegal
nest@@
proton
arch
hubble
nyu
existential
aunt
lit@@
faint
psychiat@@
photographing
passionately
randi
interro@@
montage
soundtrack
fulfilled
signifi@@
presumably
miner@@
virul@@
contribu@@
1953
outsi@@
animated
dude
headset
sali@@
limestone
lava
leak
x-rays
iv
cated
drums
unaids
rhythms
manufacturer
portu@@
persons
sanc@@
achilles
excuses
mammogram
menop@@
digitally
1940
incomes
idol
quotes
christi@@
tutor
centric
skr@@
smiley
blac@@
embarras@@
egos
chord
analog@@
stumbled
jurassic
prostitu@@
car-@@
analytical
quali@@
lymph@@
fluctuations
biotech
competent
rhetor@@
servi@@
devastated
capsule
lure
oz
diam@@
pies
protocells
savanne
schwierigkeit
konsument
gestützt
erfährt
senioren
thrust
novels
ktierte
primär@@
internationaler
langfristigen
produzierte
allerlei
gefühls@@
gesichtsausdrücke
popped
restra@@
grös@@
offenes
organisch
fenster@@
gefängnisse
conceived
pharmazeu@@
ggles
wiederver@@
gemeinschafts@@
gesundheitswesens
stärk@@
admire
zwei-
identitäten
ungslos
hinterließ
filmmakers
appearing
ndes
schüttet
strassen@@
feasi@@
dächern
dekade
erhältlich
ily
interessen@@
floss
kommerziellen
hochgeladen
zauberer
näh@@
waldes
literary
grandmothers
wiederherstellung
ghost
prüft
moun@@
gezü@@
flücht@@
dener
300.000
dious
sektoren
argumentiert
wellenlänge
incremental
kler
großzügigkeit
derung
spirituelle
orien
anmerk@@
teleskop@@
kosmologie
empfän@@
descartes
kälte
lauschen
ctivity
tigers
detectors
twin@@
colo@@
flap
babysi@@
nitri@@
gateway
notebook
determin@@
turkish
wart
cpu
peripe@@
fuse
gottes@@
kuns@@
choreogra@@
old-@@
timber
phthalates
strains
google-@@
prozac
philanthrop@@
kling
wich
ually
currents
restricted
robinson
ti-@@
waking
near-@@
inso@@
tunas
sealed
transducer
cue
tol@@
dia@@
impac@@
eur@@
fällig
kans
puppe
regisseur
ingenieurs@@
gebau@@
diag@@
schwärmen
äquator
akti@@
kredite
führungspersön@@
solves
mehrmals
korrid@@
auszuführen
stechn@@
reib@@
neigt
zugehöri@@
krankungen
bread@@
sump@@
sack@@
republi@@
jordans
prototyp@@
seren@@
isen
t.b.
implemen@@
jahrzehnts
system@@
vet
sterberate
startling
carved
schmug@@
sell@@
komischen
nachdachte
ironic
lebensstandard
gurus
östro@@
newly
swerte
reproduzieren
jacke
einzubeziehen
standardis@@
kreislauf@@
umwandlung
erfindet
tafeln
besessenheit
pein@@
releasing
modells
anschau@@
hoffte
contracts
herrschte
tooth@@
ergreifen
prozenti@@
stechnologie
mass-@@
certainty
laufende
subventionen
threaten
skelettmuskeln
korreli@@
pont
laute
strokes
races
freiheits@@
xt
besagte
blessing
claws
urteilen
swap
see-@@
vors
architekton@@
erbaut
fertigten
manipulated
zeitgenössische
1990ern
mächte
saves
lehnte
weihnachtsmann
teppi@@
compos@@
unmittelbare
erstaunlicherweise
offensive
civilian
collagen
charging
bies
steering
eingefangen
aufnahm
cooked
ddler
as-@@
klimakrise
gerechnet
illen
hühner@@
liberation
elfen@@
registriert
umweltschutz
dinnen
basteln
schläger
.a.
replied
abhalten
stereotyp@@
einkaufszentrum
kuwait
stattung
mannschaft
workshop
spins
japaner
aggressiv
forderte
keen
beträch@@
sail@@
zweitgrößte
stecke
vam@@
gewähren
lüge
returning
indianer
seifen@@
onik
sequel
freundlicher
empfand
demnach
kleidungs@@
invaded
zorn
verbot
dictator
flüchtlinge
vibration
prinz
kürzen
beleben
puberty
masken
verkür@@
hänge
teilchenphysik
bited
teddy
missbraucht
breasts
hears
chant
turtle
gewa@@
month-@@
muschel
whiskey
sousa
schlachtfeld
diagnostizieren
ura
webcam
ärz@@
blutgefässe
drüse
gurte
sne@@
zielte
crat
eval
closure
getrei@@
erlaubten
antun
kürze
weekends
nackt
paulo
decep@@
gestoppt
innovations@@
anthropologist
compen@@
licheren
short-term
gezählt
seam@@
jab@@
alled
mermaid
vic
70.000
mächtiges
cils
centralized
rezepte
verschicken
termin
äquivalent
gewartet
anordnung
anzukommen
meaningless
zusammenfassung
eigentums@@
lichten
spektakulär
mechanisch
tipping
anfühlen
priva@@
trocknet
eignet
nanotechnologie
bögen
publisher
architek@@
programmierung
instinkt
blair
änder@@
aufsteigen
nullen
crocodile
emaker
acoustic
exceptional
weltwirtschaft
statisch
jü@@
resurrec@@
dium
verdamm@@
koma
crater
yal
komponisten
subscri@@
knochenmark
inefficient
ticism
enha@@
krö@@
gemeinnützigen
adams
brieren
hinschauen
kranke
lebensspanne
avoi@@
ziffern
hoe
tiefgrün@@
pe-@@
cyber
hydropho@@
legis@@
tw@@
chair@@
genomik
boil
engagiert
contacts
blocking
ausführung
appealing
settings
würdet
nutzlos
asiens
ogramm
südasien
weizen@@
entwarfen
tritt@@
flach@@
komplettes
balancing
pers@@
refin@@
lotterie
medieval
rettungs@@
position@@
advantages
wning
sugger@@
asper@@
taboo
soll@@
massively
interessierten
sichtlich
intelligent@@
erfuhren
refers
synapsen
ribb@@
mten
vention@@
gespendet
köder
streich@@
conceive
schaff@@
dant
sangen
seitigen
falt@@
explodierte
amts@@
verwandlung
belts
presse@@
extrahieren
klon@@
barsten
bedeutungen
ungemein
respects
chalk
ktiver
behör@@
einzelheiten
zähler
katoren
bestehende
erlich
accidentally
objekts
computerprogramm
gesichts
häuser@@
agent@@
leich@@
abstrakten
umkehren
superior
varied
amy@@
aufgeklär@@
ister
verbrecher
90@@
unterhaltungen
rekonstruieren
implants
cyberkriminellen
gesessen
meldungen
unvei@@
uralten
fass
interpretiert
boyle
aussahen
wertvollen
entz@@
experimenting
referenz@@
posture
triple
visionary
ziege
zugreifen
issued
tseite
kapsel
underway
personen@@
wipe
unterdrückung
wilderness
vorzüge
hebe
vorschein
miete
educators
captures
seafood
kiki
ertrinken
schnü@@
sations@@
einschlagen
ktiert
außerirdischen
temptation
indus-schrift
retire
row@@
wärme@@
spit@@
vorsitz@@
angelegt
improvisieren
gestürzt
reis@@
buffalo
rian
flüchtling@@
maßnahme
supraleiter
typisches
fluktuationen
mittel-welt
anzusprechen
reco@@
zuständen
authentisch
gemäl@@
möbeln
bracht
exhausted
exhi@@
verga@@
fertigen
fettleibig
pollen@@
exter@@
abwei@@
drought
selbstmordattent@@
erschossen
taller
ekel
chene
verdäch@@
seu@@
nerds
inexpensive
sige
castle
künst@@
forscht
zahn
beanspru@@
heiz@@
grossartig
divers
mittelklasse
croch@@
hyperbolic
dove
fana@@
brocken
konfron@@
östlichen
kulissen
jeglicher
twitter-@@
vagina-@@
stunden@@
verhand@@
succ@@
ausdenken
salmon
alisa
protocol
ming@@
plaque
tribute
unterrichts@@
gefär@@
annan
unterkunft
dreiecke
anhalten@@
crank
diener
gaze
plying
biographi@@
unwohl
boli@@
bla
dl
quit@@
körpergröße
dentist
ressourcen@@
erholung
zerfallen
informationstechnologie
streu@@
hippocampus
selam
häufigkeit
kot@@
bitter@@
sug@@
polite
sweet@@
bites
matthieu
röntgen-@@
plakat@@
willie
pollu@@
imaginary
franch@@
chy@@
influen@@
prefrontal
carmen
wägen
nicht-nullsummen@@
mücke
dezi@@
intensivstation
cock@@
therapist
robbins
bizar@@
dilemmas
‒
argentinien
tropen
entschlüsseln
seeleop@@
lauren
idy@@
conduc@@
plötz@@
vorhandenen
gott@@
proving
lling
kleiber
nachforschungen
bingo
gummi
bräu@@
tiefgreifende
bereitstellen
liebhaber
nutzer@@
laramie
insulinresistenz
down-@@
pneumonia
és
commentary
unvorstell@@
outrageous
nützen
informierte
disper@@
carl@@
busse
deliberately
antiqu@@
bewussten
descriptions
strich@@
moderni@@
raleigh
tus@@
pfeile
moderator
standard-@@
corti@@
anästhesie
schulter@@
mächtigste
rechenmaschine
lohn@@
nursing
dravi@@
kac@@
hygiene
747
skyscra@@
tles
rabbis
brannte
jim@@
brakes
größerer
maui
schulsystem
verdau@@
zweifeln
schwefelwasserstoff
terry
citizenship
aminosäuren
enzen
databases
total@@
zurückzukommen
payments
liebling
shmi
theke
premi@@
nian
foreground
schizop@@
emitted
persön@@
cet
locom@@
requirements
epiphy@@
komplexere
reminder
gorillas
technician
joey
boltzmann
thermodynam@@
pulses
containing
refrigerator
psychisch
verschul@@
1,100
fade
dul
todesstrafe
jai@@
kapitän
hunter-@@
requests
linearen
fahrenheit
agnor@@
kondom
propor@@
1971
maine
paula
tize
gelächter
articulate
botschafter
sonstwo
meda@@
anthropologists
vos
delph@@
db
ywood
filming
mounted
verbs
julius
beschäftige
cran@@
ausrichtung
odys@@
pte
migra@@
weltrekord
selbstwertgefühl
gewisses
sagen@@
giraffe
atemberaubende
fäkalien
mighty
collabor@@
hler
horr@@
miracul@@
nirgends
dable
aufführung
speichert
todd
konfiguration
bess@@
walkable
htt@@
hnung
chan
linksh@@
bases
med@@
linus
wärmen
tierrei@@
heel
medienunternehmen
cheln
krawat@@
länder@@
baumwoll@@
gebot
umin@@
vibrio
stetho@@
ethan
hochauf@@
einigermaßen
palä@@
declined
realisierte
diffusion
gerungen
weihnacht@@
überwach@@
beck@@
southeast
verflo@@
permanently
adolescents
neandertaler
schwingungen
diamanten
mulla@@
beh@@
hart@@
chendes
buster
dvds
ausländische
spalten
messing
mock@@
chap@@
keit@@
unmengen
künf@@
sir@@
tze@@
ensemble
rider
perfektes
top-down
muffin
cigarettes
pyg@@
mp3
überwiegend
illusion@@
schluss@@
theo@@
niger
charta
reinig@@
opped
desc@@
neuro-@@
glückske@@
turk
opern@@
lieferanten
mütter@@
infect
gläser
confusing
verfahr@@
erness
wahrlich
marie
upp@@
slices
vermin@@
beschwerden
prego
guaranteed
zuzugeben
unglücklichen
siven
tivsten
faszinier@@
überraschenderweise
schlech@@
teilneh@@
erobern
intelle@@
wolkenkrat@@
viktori@@
befürchten
verdrängen
abweichungen
ckchen
macar@@
non-profit
dispar@@
geantwortet
dson
dänemark
geeig@@
geschlossen@@
apfel@@
wohltätigkeits@@
haltungs@@
faszinierendes
anter
bote
begrenzen
20ern
gemischt
fröhlich
stolper@@
mitzuteilen
performances
adolescent
übernahm
erschein@@
gerlich
cist
konventionellen
reiches
verwaltungs@@
südo@@
weltmeister@@
gesiedelt
kasse@@
wüsten
fleder@@
aspekten
grundidee
eingebunden
thun@@
erwischen
bibliothe@@
folge@@
gesprochene
anfassen
altet
delfin
ange
dierten
bloß@@
diente
gefroren
bohrer
meiß@@
müh@@
zurückgelassen
dreidimension@@
kosmische
birth@@
wahrnehmungen
anlass
unemployed
crafts@@
zesses
institutionelle
erreichbar
gegenwärtig
miniatur@@
erobert
automotive
verkündet
übergeben
kontrollen
ortes
zurückgeht
vize@@
verbundene
verschiedensten
elektronen@@
ministerin
krankheitserre@@
traumati@@
lebender
vorurteile
infizierten
senkt
etabliert
produktion@@
rekor@@
transcendence
geschäftsmodelle
schwarz-@@
schüssel
percei@@
frischen
gegebenheiten
hintergrund@@
zau@@
forsche
zuwachs
ausführ@@
anzugreifen
gebühr
ziere
primä@@
feldes
mittelt
schlaue
anforderungen
kontakte
richteten
berries
taube
detailliert
konsumiert
überraschte
severely
gastgeber
bestraft
tragische
veraltet
yste@@
manifesti@@
abholzung
öl-@@
echn@@
jekt
objektive
bemerkung
kratische
aufgefordert
landeten
dominierende
angebor@@
hierzu
kollektives
optimale
äußert
kästchen
ausdrücke
läss@@
intensiver
veranschaulichen
außer@@
reißt
träumt
mittelschicht
ischste
nter
hinweg@@
erkundet
genies
beunruhigend
ermunter@@
wächter
eingeben
unwahrschein@@
anweisung
dread@@
empfehl@@
studiere
aneinander
studenten@@
millionen-@@
bedingte
zusammenfas@@
ergänzen
lungs@@
fitted
ungsproble@@
neusten
rennt
schande
benachteili@@
spielplatz
präsidentschafts@@
seel@@
angetan
kumpel
clare
militärischen
iranischen
begegnete
mobilisieren
westens
bewegliche
insassen
eliminated
stießen
lichtjahre
täusch@@
schweres
phänomens
schildkröte
koordination
arbitrary
deadline
akademie
spazier@@
kritz@@
karibik
raumfahrt
durchqu@@
nachthimmel
schildkröten
bewusstseins@@
kombinationen
himi
tonne
kumu@@
angerei@@
umweltverschmutzung
budrus
dens@@
russ@@
kindle
könn@@
topf
tro
universi@@
lebzeiten
lös@@
trie
gefil@@
denburg
eigen
quor@@
sandel
allerersten
qi
weblogs
chaz
airstream
delphine
geringere
gess@@
bester
einsetzt
cosmology
spannen
beleuchten
kreide
dimensionale
allge@@
beobacht@@
seiten@@
öffneten
technicians
compressed
gekennzeichnet
flugbahn
mächti@@
ologischer
professions
klemp@@
slager
letzen
steil
durchbrechen
mimics
beeinträchtigt
dining
lai@@
korrespon@@
ue@@
mafia
aufweist
sacks
abgebildet
cel
mics
preserving
gelehrten
marduk
lyndon
herzerkrankungen
itäre
debat@@
dry@@
aspiration
kerala
footprints
auswirken
riv@@
diale@@
turbine
des-@@
tröpf@@
hypertext
romegal@@
richte
druckerpresse
computerspiele
angeordnet
costly
za-@@
baker
uh-@@
baxter
verhinder@@
tomaten@@
n.
recherch@@
douglas
gerweise
usd
dnis@@
kodieren
ergab
vorfall
extern@@
fabel@@
fert
tetr@@
station@@
undercover
cargill
kondi@@
zielten
moschee
inhalten
entwirft
geschenke
übertrieben
schockierend
winkeln
orientierte
nischer
übel@@
stünde
werker
trete
misshand@@
längste
mathematisches
akes
spezielles
zuhalten
augenlicht
einsteigen
essentiell
aufeinander@@
erschöpft
täter
interviewt
gewähr@@
not-@@
interviewen
gebrochenen
sives
enzymes
triggers
motorcycle
probi@@
slaves
romane
verlangte
ausbeu@@
nahrungsmittel@@
sischer
grounds
pani@@
motorrad
gleiten
treibstoff@@
sphase
böden
scham@@
einzelteile
nationaler
naht@@
ungläu@@
süßigkeiten
befriedi@@
eliminieren
cultiv@@
volumes
spaghetti-@@
willens
übereinstimmung
cosm@@
roboter-@@
skarte
forschungsarbeit
radioactive
hlten
sämtliche
naiv
modellieren
gesehen@@
richtiges
gespürt
show@@
listet
börsen@@
anhäu@@
gliedmaßen
großzügig
prüf@@
fehlenden
überraschen@@
alistische
verschmu@@
unvorstellbar
öko-@@
dasein
cognitively
vergangen
bewusst@@
liberalen
überwacht
summen
abschnitte
besei@@
sais@@
gigantische
bestehenden
gebern
hinterlässt
schwanger@@
alko@@
technisches
spektr@@
pper@@
treibhausgas@@
klimaanlage
absorbiert
regenwasser
exhilar@@
bundesstaaten
mehl
cun@@
cafeteria
acceleration
import
pete
sounded
slam@@
deni@@
inde@@
maryland
quantity
kelley
stron@@
visualizing
moglobin
13-@@
tou@@
corresponding
diane
three-year-old
stick@@
unacceptable
automated
emu@@
nour@@
tablet
trickster
ghe@@
neurotransmitter
tyranno@@
clarke
whitney
alizes
elevated
port-au-prince
jr
accent
clash
germ
hness
buddh@@
geoffrey
fractal
dump@@
ford-@@
anor@@
airports
energy-@@
strict
artifi@@
antor
stacks
six-year-old
cholester@@
tuberculosis
bioluminescent
taxon@@
basin
rectangle
denomin@@
hub
apocalyp@@
norwe@@
murdered
fif@@
70,000
availability
differential
lessig
chill
ventilation
hol
couples
succe@@
houston
editing
tili@@
handi@@
missile
fa
kilograms
disgu@@
embraced
frost
licen@@
levine
insisted
allison
communist
declar@@
prophet
burial
secretly
jenny
newcastle
strated
barcode
fragmented
imaginative
unsustainable
predicts
auschwitz
jpl
loops
creatively
measurement
wade
lemon
vide@@
circul@@
stries
participant
caf@@
switches
genesis
prevalent
trand
emphasis
story@@
mahab@@
99.@@
baugh
obligation
ozone
distinctive
astronauts
structured
statistic
fur
hid
igbo
crystals
australopithe@@
customization
flakes
spiderman
similarities
mathematically
motions
sessions
transcen@@
lump
switching
rockwell
alabama
third-@@
otto
subsidies
dispen@@
orbiting
mundane
drank
impres@@
comet
bottom@@
characteri@@
da-@@
superhero
anecdot@@
dangers
hospi@@
dental
collins
euros
jared
categ@@
caroline
brit@@
erase
bill@@
flooding
evapor@@
zable
simplistic
45-@@
flipping
mandarin
tle
margins
blob
mutually
treadmill
max@@
peel
peace@@
ken-@@
nettes
owns
forbes
tched
hypothetical
junction
stereotypes
eager
reconstruct
world-class
sacrifi@@
thankfully
nove@@
booms
inhabited
delu@@
rober@@
backward
mentors
busines@@
gifted
expands
tiveness
cers
proteomics
animations
expressive
nerv@@
cutting-edge
die-@@
gal
ania
regain
lative
concus@@
e.u.
protective
lymp@@
atrice
vibrant
imbalance
protects
osc@@
premiere
ones@@
maeda
flourishing
coinci@@
headaches
timeline
thy@@
preferences
clinically
primal
practiced
connectedness
kew
alan@@
institu@@
airlines
inda
wide-@@
founders
inc@@
pierre
ese@@
mont@@
expressing
tis@@
indication
gency
ahmed
assigned
mutant
shout
groundbreaking
cumulative
lasted
ruption
fty
mohammed
arteries
pple
tunisia
rebellion
li
jas@@
cereal
komfort
geräts
zensur
cyber-@@
bachel@@
spee@@
experimentation
biolog@@
impose
ight
lastwagen
ommen
abbildung
austri@@
nullsummen@@
ort@@
konferenz@@
tore
seli@@
relaxed
puls
systematische
persistent
verlängern
reddit
troll
shack@@
digitize
thai
existierende
navigieren
erläutern
rhi@@
404
schlief
token
früchten
dred
positively
mop
teer@@
statuen
archives
womb
alian
warnt
offizi@@
zuversicht
eindrücke
gerad@@
anno@@
mist@@
hochhaus
zuwenden
steilen
12th
red-@@
dreißig
shrinking
kontinuierlich
lungenentzündung
separating
inherited
asser@@
erhöhung
neig@@
eviden@@
erwähnten
gkeit@@
terior
belege
bekämen
methodi@@
zusätzliches
zunu@@
bestrafen
befragen
angucken
veran@@
out-of-@@
signifikant
mats
erschließen
ernsten
sequenziert
insulin@@
quanti@@
wandte
50th
influenza
orphan@@
zele@@
best-@@
accused
zusammenhänge
pollock
giert
tk
dienstleistung
hervorruft
hirshhorn
alles@@
weiterentwickeln
ms.
git
ance@@
gebote
kontro@@
meldete
-free
untersuch@@
troph@@
pago@@
pünktlich
zufälle
executed
berk@@
containers
gou@@
streng
oliven@@
rhetoric
spikes
verdiente
versi@@
spaceship
fing@@
erzeugung
aben
gespür
guts
regelrecht
minimize
megawatt
komplikationen
aufrechterhalten
kunstform
bisch
warmen
middle-class
bonnet
gitter@@
niedrigsten
hinüber
rutsch@@
erfin@@
blauer
seminal
nichtsdestotrotz
lationen
zufalls@@
rückgängig
trade-@@
performers
ständiger
vorgenommen
improves
erschü@@
stärkere
ivory
manuskri@@
pesti@@
sichtig
schlimmen
furthermore
etabli@@
verabschiedet
arguably
oel@@
resol@@
enduring
weitergeht
exclusive
kos
sähe
solide
polls
tak@@
strafen
reiter
argumentation
greece
urheberrechts@@
brin@@
fußabdruck
angestellt
pop-@@
schlä@@
volts
examined
blat@@
simpson
schlussfolgerungen
brook
gefühl@@
andauern@@
geldgeber
tropics
pro-kopf-einkommen
äste
düne
dünen
versu@@
abgespielt
wels
broadly
schwert
greenpeace
biologisches
barungen
crashed
aly@@
höf@@
natür@@
arzneimittel@@
symbolisiert
omet@@
mög@@
verle@@
fahrer@@
myri@@
ohnehin
aufleuchten
experimenter
swear
avi@@
schieß@@
sook
gefährdete
autorin
pessi@@
installations
bedauern@@
kanadischen
gedenk@@
convergence
wendig
underwear
opa@@
spiegelt
hochzu@@
pirate
bisher@@
levers
campaigning
il-@@
verzer@@
relativitätstheorie
berühmtes
(
cleaned
drip
rettete
drüsen
nationalpark
weißes
danish
praise
mexikaner
tornado
staatsober@@
vietnames@@
immigrant
millenni@@
improv
ultimativen
auszutauschen
eintauchen
mik@@
edel@@
adverti@@
partikeln
4.
dings
kindly
devi@@
ant-@@
vertrieben
lawn
hnten
l.@@
raging
embry@@
ostasien
pinsel
abbauen
mortgage
entscheidungsträger
fic
resort
chry@@
rank
konstan@@
frequ@@
gesetzes@@
potentiellen
veness
brie@@
exzell@@
anwender
bomb@@
kollision
pardon
logically
athleten
magni@@
aires
resultiert
pension
short-@@
mithalten
lastly
liess
servant
nehm@@
tn@@
reguli@@
isis
außergewöhnlicher
ppm
anfertigen
loyalty
insul@@
business-@@
überwältigende
defending
buffet
wissend
occupa@@
muti
popping
sms-@@
[...]
